<unk>	0
<s>	0
</s>	0
in	-0
▁t	-1
▁a	-2
re	-3
▁s	-4
on	-5
ti	-6
he	-7
▁c	-8
al	-9
er	-10
or	-11
en	-12
es	-13
ing	-14
▁p	-15
▁the	-16
tion	-17
is	-18
at	-19
▁an	-20
▁in	-21
ar	-22
an	-23
▁f	-24
ro	-25
▁d	-26
ed	-27
▁o	-28
▁m	-29
▁and	-30
ic	-31
▁to	-32
ur	-33
▁b	-34
om	-35
us	-36
▁e	-37
ent	-38
▁re	-39
it	-40
▁w	-41
ec	-42
as	-43
▁l	-44
▁n	-45
os	-46
▁of	-47
mp	-48
ation	-49
▁can	-50
ve	-51
id	-52
▁or	-53
▁he	-54
▁is	-55
▁y	-56
ly	-57
ment	-58
ag	-59
▁for	-60
▁pro	-61
ll	-62
uc	-63
reat	-64
▁yo	-65
▁th	-66
urg	-67
ery	-68
le	-69
▁h	-70
▁surg	-71
▁ear	-72
▁i	-73
▁ca	-74
ac	-75
ul	-76
▁con	-77
tom	-78
ess	-79
▁treat	-80
un	-81
▁sy	-82
ain	-83
▁v	-84
fec	-85
tions	-86
▁caus	-87
▁surgery	-88
ter	-89
th	-90
▁treatment	-91
▁di	-92
ow	-93
ure	-94
mptom	-95
asal	-96
▁symptom	-97
di	-98
ay	-99
ical	-100
▁symptoms	-101
▁be	-102
▁nasal	-103
▁st	-104
▁rec	-105
▁pre	-106
▁your	-107
ial	-108
ith	-109
▁ex	-110
▁with	-111
op	-112
ut	-113
▁ch	-114
oc	-115
ary	-116
▁as	-117
▁it	-118
st	-119
▁g	-120
ist	-121
▁li	-122
qu	-123
inus	-124
ri	-125
▁sp	-126
ruc	-127
▁thro	-128
▁sinus	-129
▁wh	-130
▁com	-131
am	-132
▁heal	-133
ke	-134
▁you	-135
ations	-136
iti	-137
vid	-138
pp	-139
▁de	-140
▁are	-141
▁infec	-142
▁by	-143
tive	-144
▁med	-145
▁dis	-146
aring	-147
ol	-148
ir	-149
ate	-150
▁imp	-151
▁r	-152
und	-153
est	-154
age	-155
▁per	-156
▁se	-157
il	-158
ov	-159
▁may	-160
tic	-161
ad	-162
nos	-163
ications	-164
um	-165
ud	-166
▁health	-167
agnos	-168
▁diagnos	-169
▁pain	-170
ot	-171
ce	-172
ome	-173
▁af	-174
are	-175
rom	-176
▁inc	-177
▁throat	-178
▁hearing	-179
end	-180
od	-181
for	-182
▁proc	-183
per	-184
ps	-185
fic	-186
gh	-187
ult	-188
ore	-189
ss	-190
aryn	-191
ill	-192
▁causes	-193
▁man	-194
enti	-195
▁condi	-196
▁provid	-197
king	-198
▁hel	-199
ver	-200
▁what	-201
▁ac	-202
ens	-203
▁app	-204
▁le	-205
ge	-206
itis	-207
ges	-208
▁ad	-209
▁spec	-210
▁if	-211
▁all	-212
▁recov	-213
oid	-214
under	-215
▁under	-216
▁help	-217
oss	-218
▁like	-219
▁sw	-220
▁infections	-221
se	-222
▁impro	-223
care	-224
▁prev	-225
▁disc	-226
▁on	-227
▁qu	-228
fl	-229
ast	-230
ual	-231
lud	-232
▁includ	-233
▁recovery	-234
▁healthcare	-235
oll	-236
▁cause	-237
ity	-238
edure	-239
▁procedure	-240
all	-241
▁that	-242
duc	-243
ant	-244
▁rem	-245
ra	-246
ies	-247
▁fac	-248
struc	-249
tor	-250
▁suc	-251
▁lead	-252
▁us	-253
▁comp	-254
▁how	-255
▁medical	-256
ien	-257
ose	-258
su	-259
ia	-260
ig	-261
▁ty	-262
▁from	-263
ion	-264
ated	-265
ugh	-266
iz	-267
io	-268
▁any	-269
▁whe	-270
▁inv	-271
▁ab	-272
ential	-273
ble	-274
ice	-275
▁after	-276
ress	-277
▁prevent	-278
im	-279
hing	-280
ron	-281
her	-282
▁provider	-283
▁manage	-284
ord	-285
▁improve	-286
ren	-287
▁loss	-288
ell	-289
▁exper	-290
tomy	-291
cer	-292
▁lif	-293
ie	-294
▁ne	-295
ness	-296
▁invol	-297
▁include	-298
▁ot	-299
▁dr	-300
▁res	-301
▁dif	-302
ular	-303
▁diagnosis	-304
ollow	-305
▁follow	-306
▁pers	-307
▁ha	-308
ign	-309
ocal	-310
▁breat	-311
▁reduc	-312
▁laryn	-313
▁out	-314
▁typ	-315
▁experien	-316
▁infl	-317
ati	-318
oice	-319
▁op	-320
▁care	-321
▁ste	-322
fect	-323
▁voice	-324
mation	-325
▁nose	-326
▁sc	-327
▁will	-328
▁vocal	-329
ild	-330
ys	-331
▁cruc	-332
▁crucial	-333
ost	-334
▁inflam	-335
ue	-336
ronic	-337
▁special	-338
▁chronic	-339
▁nec	-340
▁su	-341
▁infection	-342
▁cons	-343
▁this	-344
▁rel	-345
▁these	-346
▁home	-347
▁condition	-348
▁mo	-349
ine	-350
▁involv	-351
ms	-352
ory	-353
ention	-354
ically	-355
▁when	-356
▁ev	-357
▁at	-358
▁such	-359
ific	-360
▁ess	-361
▁essential	-362
▁inflammation	-363
▁see	-364
unc	-365
▁ph	-366
▁ef	-367
sues	-368
lying	-369
▁chan	-370
▁affect	-371
▁indi	-372
▁comm	-373
erg	-374
vidual	-375
▁individual	-376
cess	-377
osc	-378
form	-379
up	-380
▁sm	-381
fort	-382
int	-383
▁diffic	-384
▁breathing	-385
▁typically	-386
▁bl	-387
▁j	-388
rac	-389
▁av	-390
▁ir	-391
▁allerg	-392
▁hy	-393
▁steps	-394
▁al	-395
▁over	-396
ach	-397
ance	-398
▁fa	-399
unction	-400
▁ta	-401
ort	-402
▁persist	-403
▁changes	-404
ood	-405
alu	-406
atient	-407
▁conditions	-408
▁ob	-409
uid	-410
▁evalu	-411
▁underlying	-412
▁some	-413
▁me	-414
▁through	-415
▁issues	-416
ons	-417
▁pl	-418
▁so	-419
and	-420
▁fe	-421
▁effec	-422
▁faq	-423
▁compl	-424
▁appro	-425
ks	-426
▁test	-427
▁patient	-428
▁involves	-429
▁specialist	-430
▁sign	-431
oint	-432
▁complications	-433
▁do	-434
▁management	-435
out	-436
▁te	-437
ious	-438
▁effective	-439
aging	-440
ong	-441
mal	-442
▁yes	-443
tis	-444
ities	-445
▁have	-446
▁surgical	-447
▁ind	-448
▁ass	-449
oscop	-450
▁ent	-451
▁avoid	-452
▁reduce	-453
▁surge	-454
ep	-455
tors	-456
ative	-457
vi	-458
▁due	-459
omfort	-460
▁ris	-461
rit	-462
struction	-463
dr	-464
rap	-465
▁difficult	-466
▁doc	-467
▁irrit	-468
▁experience	-469
▁reg	-470
gestion	-471
ech	-472
▁congestion	-473
ase	-474
▁cont	-475
▁qual	-476
▁other	-477
ect	-478
ectomy	-479
uring	-480
▁supp	-481
▁ques	-482
▁questions	-483
▁common	-484
▁discomfort	-485
fore	-486
owing	-487
▁before	-488
hes	-489
▁fl	-490
ases	-491
▁im	-492
▁ens	-493
one	-494
▁difficulty	-495
▁facial	-496
ass	-497
▁en	-498
ric	-499
▁perform	-500
be	-501
▁cord	-502
▁child	-503
▁consult	-504
▁persistent	-505
geal	-506
ful	-507
ran	-508
▁air	-509
hin	-510
▁surgeon	-511
▁evaluation	-512
ns	-513
▁fre	-514
last	-515
ive	-516
▁neck	-517
▁we	-518
▁function	-519
▁medications	-520
com	-521
tain	-522
▁sh	-523
▁spe	-524
og	-525
▁sens	-526
rib	-527
▁quality	-528
▁recon	-529
▁ensure	-530
▁during	-531
elling	-532
umor	-533
▁press	-534
▁tumor	-535
lasty	-536
▁remov	-537
▁exp	-538
▁swall	-539
▁post	-540
amin	-541
▁relie	-542
ages	-543
▁mon	-544
ointment	-545
▁pressure	-546
▁appointment	-547
titis	-548
▁indications	-549
▁therap	-550
▁not	-551
▁tests	-552
▁(	-553
▁prep	-554
▁che	-555
▁tu	-556
ked	-557
▁frequ	-558
▁inter	-559
▁co	-560
▁cl	-561
▁need	-562
▁att	-563
▁end	-564
▁specific	-565
ap	-566
▁early	-567
▁swelling	-568
ormal	-569
▁regular	-570
▁swallowing	-571
yle	-572
▁proper	-573
▁lifest	-574
▁lifestyle	-575
▁wor	-576
edi	-577
ers	-578
ting	-579
rent	-580
vere	-581
rain	-582
▁caused	-583
▁recur	-584
▁pass	-585
tib	-586
▁var	-587
aw	-588
ures	-589
▁po	-590
ized	-591
▁smo	-592
▁phys	-593
▁tra	-594
nd	-595
ndrom	-596
▁rest	-597
oplasty	-598
▁otitis	-599
▁endoscop	-600
▁frequent	-601
uma	-602
acter	-603
omm	-604
▁treatments	-605
ants	-606
▁concer	-607
ays	-608
▁forms	-609
▁diagnostic	-610
▁about	-611
▁jaw	-612
▁life	-613
▁tons	-614
ch	-615
oring	-616
▁canal	-617
▁sound	-618
ommend	-619
▁recommend	-620
▁does	-621
vel	-622
igh	-623
term	-624
▁factors	-625
go	-626
▁leading	-627
▁vis	-628
▁muc	-629
▁gl	-630
el	-631
▁ma	-632
arge	-633
▁process	-634
pt	-635
▁cle	-636
▁therapy	-637
▁severe	-638
▁options	-639
ndrome	-640
▁doctor	-641
▁sal	-642
▁individuals	-643
ening	-644
mpt	-645
▁main	-646
▁,	-647
ute	-648
▁physical	-649
▁using	-650
▁add	-651
▁syndrome	-652
oph	-653
ving	-654
erative	-655
▁monit	-656
operative	-657
▁drain	-658
▁their	-659
▁remed	-660
▁pres	-661
▁remedies	-662
▁tim	-663
▁causing	-664
▁patients	-665
et	-666
▁ro	-667
atric	-668
▁pedi	-669
▁pediatric	-670
▁passages	-671
▁poly	-672
▁concerns	-673
▁prompt	-674
▁reconstruction	-675
ection	-676
▁cases	-677
▁interv	-678
evi	-679
ating	-680
▁allevi	-681
▁par	-682
▁dise	-683
▁seek	-684
▁address	-685
▁gen	-686
▁success	-687
▁ins	-688
▁they	-689
▁tube	-690
▁alleviate	-691
ruct	-692
▁struct	-693
▁examin	-694
fy	-695
so	-696
rig	-697
▁also	-698
structions	-699
pri	-700
priate	-701
▁trauma	-702
▁appropriate	-703
▁time	-704
▁disord	-705
dle	-706
ab	-707
▁resp	-708
▁rhin	-709
▁sinusitis	-710
▁guid	-711
▁head	-712
▁removal	-713
▁cancer	-714
ous	-715
comes	-716
▁outcomes	-717
▁det	-718
▁allergies	-719
▁mid	-720
▁id	-721
▁various	-722
▁sk	-723
aryng	-724
▁assess	-725
▁instructions	-726
fe	-727
▁laryng	-728
▁avoiding	-729
▁drainage	-730
able	-731
tiv	-732
ust	-733
▁middle	-734
▁frequently	-735
em	-736
▁examination	-737
▁provide	-738
leep	-739
▁obj	-740
▁pri	-741
uss	-742
▁recurrent	-743
ize	-744
▁risks	-745
▁discuss	-746
▁sleep	-747
mot	-748
▁overall	-749
▁best	-750
▁bloc	-751
▁bacter	-752
▁speech	-753
▁attention	-754
▁dry	-755
osis	-756
thod	-757
▁long	-758
▁determ	-759
▁endoscopic	-760
cur	-761
▁result	-762
▁performed	-763
▁preparing	-764
▁identi	-765
▁asked	-766
oma	-767
ile	-768
red	-769
▁rep	-770
▁sept	-771
uld	-772
▁method	-773
▁imaging	-774
▁sinuses	-775
▁support	-776
▁ears	-777
ced	-778
▁who	-779
▁hist	-780
▁prim	-781
eding	-782
ring	-783
▁un	-784
velop	-785
▁sever	-786
▁effectively	-787
▁inj	-788
▁no	-789
ater	-790
▁history	-791
ten	-792
ans	-793
oth	-794
ural	-795
act	-796
sen	-797
▁polyps	-798
▁blood	-799
▁trac	-800
▁activ	-801
▁primary	-802
▁contrib	-803
▁develop	-804
ich	-805
mpan	-806
▁ble	-807
▁fluid	-808
▁recommended	-809
▁healing	-810
uth	-811
▁mouth	-812
▁but	-813
▁cer	-814
▁identify	-815
▁laryngeal	-816
ually	-817
▁disch	-818
▁ke	-819
▁bleeding	-820
▁adv	-821
▁tis	-822
▁successful	-823
▁mus	-824
▁dec	-825
▁more	-826
osure	-827
▁musc	-828
own	-829
ould	-830
▁pot	-831
ible	-832
▁dam	-833
fi	-834
▁following	-835
▁discharge	-836
▁bu	-837
ision	-838
▁should	-839
atory	-840
▁often	-841
▁team	-842
tics	-843
▁hydr	-844
▁int	-845
arm	-846
ups	-847
▁determine	-848
bin	-849
▁bet	-850
▁intervention	-851
ily	-852
▁antib	-853
▁mucus	-854
▁signific	-855
sue	-856
▁dep	-857
▁k	-858
▁significant	-859
▁sn	-860
ning	-861
▁antibio	-862
▁treating	-863
stand	-864
▁promot	-865
▁my	-866
normal	-867
ective	-868
▁abnormal	-869
▁understand	-870
▁media	-871
qui	-872
▁depend	-873
ni	-874
▁while	-875
▁necess	-876
▁including	-877
▁irritation	-878
▁activities	-879
▁plan	-880
▁ho	-881
▁wee	-882
▁certain	-883
▁lo	-884
▁vir	-885
▁take	-886
▁potential	-887
tern	-888
ased	-889
▁stay	-890
▁risk	-891
▁there	-892
rec	-893
▁proble	-894
▁objective	-895
▁bal	-896
▁managing	-897
▁necessary	-898
co	-899
▁trig	-900
ax	-901
ner	-902
▁relief	-903
aryngeal	-904
▁usually	-905
ide	-906
▁cords	-907
▁exposure	-908
ted	-909
ak	-910
ft	-911
▁ra	-912
ight	-913
ital	-914
▁where	-915
▁bone	-916
iv	-917
ication	-918
▁dys	-919
▁min	-920
▁ar	-921
▁oral	-922
udi	-923
ments	-924
▁undergo	-925
tim	-926
▁damage	-927
▁maintain	-928
▁kn	-929
aches	-930
ph	-931
▁modi	-932
▁trache	-933
▁children	-934
▁tech	-935
▁presc	-936
row	-937
▁promote	-938
▁tend	-939
▁impact	-940
fications	-941
▁which	-942
▁u	-943
▁modifications	-944
▁tender	-945
▁bacterial	-946
▁its	-947
astoid	-948
▁feel	-949
▁sensation	-950
▁used	-951
▁tonsill	-952
▁ner	-953
▁problems	-954
ession	-955
▁disease	-956
▁chec	-957
▁extern	-958
▁es	-959
niqu	-960
▁techniqu	-961
▁radi	-962
▁person	-963
▁antibiotics	-964
drum	-965
▁impl	-966
▁eardrum	-967
ull	-968
▁cor	-969
tional	-970
▁warm	-971
▁requi	-972
etic	-973
▁inner	-974
▁procedures	-975
ther	-976
olog	-977
▁tympan	-978
▁ct	-979
▁scans	-980
▁methods	-981
ough	-982
ility	-983
▁affecting	-984
▁disorders	-985
▁inser	-986
▁airw	-987
▁scre	-988
▁known	-989
▁weeks	-990
iratory	-991
▁respiratory	-992
air	-993
iness	-994
lex	-995
▁good	-996
▁block	-997
▁check	-998
▁gland	-999
▁tonsil	-1000
▁tumors	-1001
oci	-1002
ociated	-1003
▁treated	-1004
▁associated	-1005
ung	-1006
▁area	-1007
▁larynx	-1008
active	-1009
esthes	-1010
▁screening	-1011
▁aid	-1012
old	-1013
▁import	-1014
ove	-1015
round	-1016
▁understanding	-1017
▁temp	-1018
▁viral	-1019
▁better	-1020
▁normal	-1021
▁mastoid	-1022
▁trigg	-1023
▁important	-1024
▁injur	-1025
▁dri	-1026
▁detection	-1027
gien	-1028
giene	-1029
▁hygiene	-1030
▁been	-1031
▁hoar	-1032
▁contribute	-1033
▁sore	-1034
anced	-1035
▁myring	-1036
vir	-1037
▁here	-1038
▁water	-1039
▁seeking	-1040
ody	-1041
▁nois	-1042
▁tenderness	-1043
ribed	-1044
▁most	-1045
▁balance	-1046
▁promptly	-1047
ail	-1048
▁poss	-1049
▁imm	-1050
▁tast	-1051
▁prof	-1052
▁techniques	-1053
▁acute	-1054
▁remove	-1055
▁monitor	-1056
▁strain	-1057
▁screenings	-1058
ching	-1059
▁prog	-1060
▁septum	-1061
▁snoring	-1062
▁obstruction	-1063
curate	-1064
▁accurate	-1065
cis	-1066
▁taste	-1067
ne	-1068
▁meas	-1069
▁diagnosed	-1070
▁devi	-1071
▁hydrated	-1072
▁experienc	-1073
▁structures	-1074
▁signs	-1075
▁excess	-1076
▁stress	-1077
▁prescribed	-1078
ug	-1079
▁several	-1080
ifi	-1081
ollen	-1082
viron	-1083
▁saliv	-1084
▁environ	-1085
▁anesthes	-1086
iod	-1087
▁ben	-1088
▁airway	-1089
▁period	-1090
▁few	-1091
▁cough	-1092
▁proactive	-1093
▁undergoing	-1094
▁use	-1095
▁into	-1096
▁depending	-1097
ractic	-1098
▁require	-1099
zz	-1100
ian	-1101
▁each	-1102
ry	-1103
ulti	-1104
▁ext	-1105
izing	-1106
▁genetic	-1107
▁practic	-1108
▁well	-1109
▁tissue	-1110
lation	-1111
▁irritants	-1112
▁smoking	-1113
▁abnormalities	-1114
▁tran	-1115
▁minim	-1116
▁profession	-1117
▁tin	-1118
▁1	-1119
ging	-1120
▁build	-1121
als	-1122
▁ser	-1123
▁body	-1124
▁preventing	-1125
seness	-1126
▁hoarseness	-1127
▁muscle	-1128
▁fur	-1129
▁str	-1130
use	-1131
estib	-1132
▁aden	-1133
ostomy	-1134
its	-1135
▁vestib	-1136
▁repair	-1137
▁measures	-1138
▁anesthesia	-1139
▁experiencing	-1140
hy	-1141
▁expect	-1142
▁further	-1143
the	-1144
▁go	-1145
▁dizz	-1146
▁nerve	-1147
ond	-1148
▁related	-1149
udit	-1150
▁audit	-1151
▁auditory	-1152
▁dizziness	-1153
▁monitoring	-1154
ux	-1155
ence	-1156
▁tur	-1157
une	-1158
ling	-1159
stem	-1160
ustach	-1161
▁diffe	-1162
▁eustach	-1163
▁eustachian	-1164
rol	-1165
▁las	-1166
icate	-1167
▁grow	-1168
pl	-1169
▁rev	-1170
aryngitis	-1171
▁cho	-1172
fness	-1173
▁appointments	-1174
▁guide	-1175
▁laser	-1176
▁sounds	-1177
ied	-1178
rays	-1179
▁loud	-1180
▁produc	-1181
▁rhinitis	-1182
teroid	-1183
▁lu	-1184
▁close	-1185
▁doctors	-1186
▁itching	-1187
och	-1188
vity	-1189
ochle	-1190
▁clear	-1191
▁needs	-1192
▁incision	-1193
▁prevention	-1194
den	-1195
ula	-1196
flux	-1197
nasal	-1198
▁tempor	-1199
▁neu	-1200
ortive	-1201
▁reflux	-1202
▁supportive	-1203
yro	-1204
itus	-1205
▁cochle	-1206
▁aim	-1207
▁visit	-1208
les	-1209
▁trans	-1210
ear	-1211
opharyngeal	-1212
nitus	-1213
▁acid	-1214
▁recog	-1215
comp	-1216
udies	-1217
▁studies	-1218
ally	-1219
▁skin	-1220
▁commun	-1221
▁possible	-1222
▁ple	-1223
▁red	-1224
▁tinnitus	-1225
ored	-1226
▁buildup	-1227
▁addi	-1228
▁keep	-1229
▁cold	-1230
▁vary	-1231
compan	-1232
▁fever	-1233
▁accompan	-1234
▁comes	-1235
▁.	-1236
mph	-1237
yst	-1238
▁high	-1239
arg	-1240
▁adenoid	-1241
ite	-1242
▁exer	-1243
▁thor	-1244
▁lump	-1245
▁nod	-1246
▁incre	-1247
ologist	-1248
▁timely	-1249
▁thorough	-1250
▁drin	-1251
▁list	-1252
▁exercis	-1253
▁cochlear	-1254
▁vestibular	-1255
▁our	-1256
▁saline	-1257
▁sa	-1258
▁perfor	-1259
aking	-1260
▁oc	-1261
▁fore	-1262
▁ref	-1263
▁growth	-1264
▁da	-1265
▁disorder	-1266
aged	-1267
ries	-1268
▁deviated	-1269
▁diagnose	-1270
▁improving	-1271
▁gener	-1272
▁reach	-1273
▁implant	-1274
▁restore	-1275
sw	-1276
xt	-1277
▁chol	-1278
▁one	-1279
▁role	-1280
▁daily	-1281
hed	-1282
▁diagnosing	-1283
pec	-1284
ially	-1285
▁progress	-1286
▁accompanied	-1287
▁weak	-1288
pecially	-1289
▁diseases	-1290
▁especially	-1291
▁br	-1292
▁up	-1293
▁rare	-1294
▁tail	-1295
▁hum	-1296
function	-1297
▁answ	-1298
▁stap	-1299
▁having	-1300
▁answer	-1301
▁correc	-1302
▁making	-1303
▁swollen	-1304
▁speaking	-1305
▁diet	-1306
▁turbin	-1307
▁ver	-1308
▁visual	-1309
▁personal	-1310
▁structural	-1311
ungal	-1312
yroid	-1313
▁system	-1314
▁serious	-1315
▁involved	-1316
▁days	-1317
ty	-1318
▁dro	-1319
▁sud	-1320
▁taking	-1321
▁relieve	-1322
▁last	-1323
▁small	-1324
▁sudden	-1325
▁feeling	-1326
▁dysfunction	-1327
thm	-1328
▁ap	-1329
come	-1330
flow	-1331
▁involve	-1332
▁compress	-1333
▁injury	-1334
▁excessive	-1335
▁personalized	-1336
▁food	-1337
▁moist	-1338
este	-1339
▁bec	-1340
▁apne	-1341
▁allergic	-1342
icking	-1343
▁apnea	-1344
▁listen	-1345
▁outcome	-1346
ler	-1347
coun	-1348
▁next	-1349
▁smooth	-1350
▁advanced	-1351
hal	-1352
▁drip	-1353
ulties	-1354
▁recogn	-1355
▁difficulties	-1356
ack	-1357
▁pat	-1358
▁sur	-1359
▁sprays	-1360
▁approaches	-1361
iew	-1362
tigo	-1363
▁bene	-1364
▁full	-1365
▁salivary	-1366
ider	-1367
▁combin	-1368
▁vertigo	-1369
ateg	-1370
▁make	-1371
▁development	-1372
▁ep	-1373
timal	-1374
▁humid	-1375
▁optimal	-1376
▁consider	-1377
▁strateg	-1378
▁ret	-1379
▁please	-1380
▁environment	-1381
counter	-1382
▁worries	-1383
▁key	-1384
▁needed	-1385
▁medication	-1386
atoma	-1387
▁strategies	-1388
▁smell	-1389
▁approach	-1390
▁specialists	-1391
▁prepare	-1392
▁staying	-1393
structive	-1394
▁review	-1395
▁tak	-1396
▁recognizing	-1397
▁aids	-1398
▁smoke	-1399
itation	-1400
▁tracheostomy	-1401
▁dea	-1402
ard	-1403
▁cyst	-1404
▁occur	-1405
▁choleste	-1406
tal	-1407
times	-1408
▁deafness	-1409
▁sometimes	-1410
ts	-1411
▁immune	-1412
▁cholesteatoma	-1413
otomy	-1414
▁externa	-1415
▁tonsils	-1416
▁enh	-1417
▁attend	-1418
▁comfort	-1419
▁redness	-1420
▁allergens	-1421
vers	-1422
▁anti	-1423
▁improv	-1424
te	-1425
imm	-1426
▁exam	-1427
▁helps	-1428
▁affected	-1429
▁providers	-1430
▁sub	-1431
being	-1432
▁based	-1433
▁comple	-1434
▁blockage	-1435
▁significantly	-1436
li	-1437
▁train	-1438
▁clicking	-1439
ates	-1440
▁form	-1441
▁fungal	-1442
▁thyroid	-1443
iety	-1444
▁airflow	-1445
▁results	-1446
▁drinking	-1447
▁production	-1448
asive	-1449
alys	-1450
▁max	-1451
alysis	-1452
oscler	-1453
▁severity	-1454
▁ey	-1455
▁conf	-1456
▁maintaining	-1457
▁inhal	-1458
▁uv	-1459
ones	-1460
treat	-1461
ution	-1462
▁day	-1463
▁stre	-1464
▁tonsillectomy	-1465
lf	-1466
gen	-1467
▁mri	-1468
▁skill	-1469
▁appear	-1470
▁than	-1471
▁hyper	-1472
ental	-1473
▁char	-1474
▁play	-1475
▁character	-1476
osi	-1477
▁ethm	-1478
▁ethmoid	-1479
▁irrig	-1480
▁testing	-1481
▁temporary	-1482
▁combination	-1483
▁pharyngitis	-1484
▁visualize	-1485
cy	-1486
▁bur	-1487
oscopy	-1488
▁joint	-1489
▁takes	-1490
▁fullness	-1491
ox	-1492
▁em	-1493
▁mic	-1494
▁aims	-1495
▁closely	-1496
▁interven	-1497
▁abs	-1498
▁adj	-1499
▁dilation	-1500
▁different	-1501
hens	-1502
▁loc	-1503
▁safe	-1504
rehens	-1505
gue	-1506
▁fati	-1507
▁incor	-1508
▁fatigue	-1509
▁comprehens	-1510
▁pap	-1511
▁benef	-1512
▁papill	-1513
▁reducing	-1514
▁exercises	-1515
▁appearance	-1516
▁irrigation	-1517
▁interventions	-1518
ick	-1519
▁pal	-1520
▁general	-1521
fully	-1522
▁dist	-1523
▁extent	-1524
▁maxill	-1525
▁work	-1526
▁painful	-1527
por	-1528
ongest	-1529
▁improved	-1530
▁decongest	-1531
atch	-1532
▁trigger	-1533
▁invasive	-1534
▁pe	-1535
▁done	-1536
▁type	-1537
▁ly	-1538
▁face	-1539
▁fist	-1540
treated	-1541
▁untreated	-1542
▁specialized	-1543
▁both	-1544
▁foreign	-1545
▁tissues	-1546
ces	-1547
fer	-1548
▁abscess	-1549
▁burning	-1550
▁humidifi	-1551
▁incorpor	-1552
▁adenoidectomy	-1553
▁comprehensive	-1554
rence	-1555
usion	-1556
▁cleft	-1557
▁dental	-1558
▁option	-1559
rounding	-1560
▁insertion	-1561
▁surrounding	-1562
▁ang	-1563
▁around	-1564
▁perforation	-1565
ping	-1566
▁allow	-1567
▁muscles	-1568
▁external	-1569
▁carefully	-1570
pper	-1571
osition	-1572
▁within	-1573
▁requires	-1574
▁triggers	-1575
ace	-1576
▁fistula	-1577
▁sensiti	-1578
▁headaches	-1579
roma	-1580
▁direc	-1581
▁healthy	-1582
▁bacteria	-1583
▁guidance	-1584
ects	-1585
ople	-1586
▁enl	-1587
▁rout	-1588
▁environmental	-1589
▁paro	-1590
▁arran	-1591
▁people	-1592
▁affects	-1593
hie	-1594
tid	-1595
▁back	-1596
▁thin	-1597
▁achie	-1598
▁stren	-1599
▁upper	-1600
▁ran	-1601
uter	-1602
▁worsen	-1603
▁commonly	-1604
▁el	-1605
▁ability	-1606
▁tailored	-1607
rh	-1608
man	-1609
▁car	-1610
▁avail	-1611
▁brain	-1612
▁lymph	-1613
▁detail	-1614
▁available	-1615
▁anx	-1616
▁without	-1617
ior	-1618
inging	-1619
▁recover	-1620
▁prevented	-1621
▁decongestants	-1622
osclerosis	-1623
hen	-1624
▁mild	-1625
▁weakness	-1626
▁contribut	-1627
zing	-1628
▁prot	-1629
▁scar	-1630
▁deform	-1631
br	-1632
ors	-1633
▁dev	-1634
▁sense	-1635
▁maxillary	-1636
▁communication	-1637
▁incorporating	-1638
▁reconstructive	-1639
uf	-1640
ves	-1641
▁get	-1642
ining	-1643
▁laryngitis	-1644
ause	-1645
fects	-1646
teroids	-1647
▁enhance	-1648
▁routine	-1649
ension	-1650
▁drops	-1651
▁addressing	-1652
▁myringitis	-1653
bleed	-1654
opping	-1655
▁experienced	-1656
ang	-1657
arged	-1658
▁outer	-1659
▁managed	-1660
▁radiation	-1661
▁professionals	-1662
▁2	-1663
rin	-1664
▁clean	-1665
▁blocked	-1666
▁dryness	-1667
▁endoscopy	-1668
▁nosebleed	-1669
▁additional	-1670
▁consulting	-1671
▁tonsillitis	-1672
ins	-1673
▁advice	-1674
▁conduc	-1675
▁practicing	-1676
▁spas	-1677
▁tension	-1678
min	-1679
▁goal	-1680
▁humidifier	-1681
▁professional	-1682
ght	-1683
▁fron	-1684
▁minimally	-1685
read	-1686
▁otol	-1687
▁otolaryng	-1688
▁characterized	-1689
▁micro	-1690
▁steam	-1691
▁adjust	-1692
▁cavity	-1693
▁noises	-1694
▁staped	-1695
▁reduced	-1696
ber	-1697
dib	-1698
omp	-1699
urance	-1700
▁issue	-1701
▁relievers	-1702
▁inhalation	-1703
ule	-1704
bing	-1705
▁has	-1706
▁non	-1707
dibular	-1708
▁spread	-1709
▁paralysis	-1710
▁mastoiditis	-1711
sy	-1712
hind	-1713
▁behind	-1714
▁relax	-1715
▁functional	-1716
▁bar	-1717
▁anxiety	-1718
▁benefits	-1719
roph	-1720
▁les	-1721
▁sec	-1722
ified	-1723
▁lesion	-1724
▁eating	-1725
▁#	-1726
ven	-1727
▁men	-1728
ranch	-1729
▁chee	-1730
▁side	-1731
▁increased	-1732
osm	-1733
uses	-1734
▁des	-1735
▁sial	-1736
▁evaluate	-1737
ines	-1738
othe	-1739
uric	-1740
▁open	-1741
ational	-1742
▁branch	-1743
▁nosebleeds	-1744
abil	-1745
ound	-1746
enges	-1747
▁enlarged	-1748
▁move	-1749
▁breath	-1750
▁postnasal	-1751
hydr	-1752
▁sol	-1753
▁cell	-1754
omet	-1755
▁reac	-1756
genital	-1757
▁parotid	-1758
▁identifying	-1759
▁earw	-1760
▁insurance	-1761
▁congenital	-1762
▁earwax	-1763
cl	-1764
iere	-1765
▁orb	-1766
ticos	-1767
▁corticos	-1768
▁removing	-1769
▁achieve	-1770
▁orbital	-1771
ths	-1772
▁rece	-1773
▁chall	-1774
▁palate	-1775
inusitis	-1776
▁meniere	-1777
▁coughing	-1778
▁training	-1779
rel	-1780
enty	-1781
▁them	-1782
▁plenty	-1783
▁frontal	-1784
▁hydration	-1785
wn	-1786
ently	-1787
▁control	-1788
▁papillom	-1789
▁sensitivity	-1790
▁contributing	-1791
iop	-1792
▁own	-1793
ationale	-1794
▁rationale	-1795
▁cour	-1796
▁skilled	-1797
▁solution	-1798
ache	-1799
osing	-1800
ympan	-1801
▁complete	-1802
tise	-1803
▁hyp	-1804
ongue	-1805
▁audi	-1806
ometry	-1807
▁skull	-1808
related	-1809
▁course	-1810
▁tongue	-1811
▁expertise	-1812
bes	-1813
▁ul	-1814
ezing	-1815
▁dehydr	-1816
▁perman	-1817
lot	-1818
orm	-1819
surg	-1820
right	-1821
▁ball	-1822
▁even	-1823
agious	-1824
▁foods	-1825
▁tubes	-1826
▁applying	-1827
til	-1828
▁allergy	-1829
▁growths	-1830
equ	-1831
oon	-1832
urn	-1833
▁wax	-1834
rolog	-1835
equate	-1836
▁decre	-1837
urative	-1838
▁months	-1839
▁implants	-1840
▁neurolog	-1841
▁contagious	-1842
▁gag	-1843
ption	-1844
▁opening	-1845
▁surgeons	-1846
▁otoplasty	-1847
▁assessment	-1848
osp	-1849
▁sched	-1850
▁glands	-1851
▁balloon	-1852
▁complex	-1853
▁permanent	-1854
erv	-1855
ches	-1856
clusion	-1857
▁reflex	-1858
▁correct	-1859
▁resulting	-1860
uis	-1861
rhag	-1862
▁nas	-1863
▁reh	-1864
▁uvul	-1865
▁notic	-1866
▁objects	-1867
▁rehabil	-1868
▁indicate	-1869
▁provided	-1870
▁foc	-1871
▁sti	-1872
▁wors	-1873
elines	-1874
▁swimm	-1875
▁popping	-1876
▁guidelines	-1877
▁individualized	-1878
we	-1879
orine	-1880
▁cran	-1881
▁ulcer	-1882
orineural	-1883
▁sensorineural	-1884
ib	-1885
art	-1886
onia	-1887
▁pac	-1888
▁run	-1889
▁sus	-1890
itary	-1891
atosis	-1892
▁esoph	-1893
▁right	-1894
▁watch	-1895
▁conclusion	-1896
▁recommendations	-1897
osa	-1898
asia	-1899
rapy	-1900
ules	-1901
rauma	-1902
▁poll	-1903
▁pharyngeal	-1904
▁dehydration	-1905
▁neurological	-1906
mj	-1907
ween	-1908
▁deep	-1909
▁notice	-1910
▁between	-1911
▁addition	-1912
▁injuries	-1913
▁practice	-1914
▁blockages	-1915
▁rehabilitation	-1916
hol	-1917
▁sne	-1918
▁throughout	-1919
▁flex	-1920
▁polyp	-1921
otrauma	-1922
ression	-1923
ulation	-1924
▁detailed	-1925
▁inserting	-1926
▁deformities	-1927
occ	-1928
▁jug	-1929
ococc	-1930
oustic	-1931
▁being	-1932
▁targe	-1933
▁barotrauma	-1934
▁papillomatosis	-1935
ents	-1936
otic	-1937
usis	-1938
▁emo	-1939
▁chew	-1940
▁coll	-1941
▁scab	-1942
▁septal	-1943
reditary	-1944
ny	-1945
▁:	-1946
ope	-1947
▁runny	-1948
▁tight	-1949
▁transp	-1950
▁headache	-1951
▁hereditary	-1952
mit	-1953
▁near	-1954
▁nodes	-1955
▁resection	-1956
cohol	-1957
▁cheek	-1958
▁depends	-1959
▁transport	-1960
fib	-1961
▁decomp	-1962
▁alcohol	-1963
▁nodules	-1964
▁transportation	-1965
by	-1966
asis	-1967
geus	-1968
▁acc	-1969
align	-1970
▁creat	-1971
▁dysph	-1972
▁effects	-1973
▁sneezing	-1974
▁emotional	-1975
cular	-1976
itting	-1977
▁angio	-1978
▁potentially	-1979
eth	-1980
imin	-1981
onse	-1982
pect	-1983
▁base	-1984
▁biop	-1985
▁root	-1986
▁salt	-1987
▁auric	-1988
▁bruis	-1989
▁elimin	-1990
▁return	-1991
▁soothe	-1992
▁vision	-1993
▁because	-1994
▁ringing	-1995
▁acoustic	-1996
▁response	-1997
▁consultation	-1998
▁decompression	-1999
ency	-2000
ateral	-2001
ecting	-2002
▁strep	-2003
▁varies	-2004
ever	-2005
eries	-2006
ritis	-2007
▁fast	-2008
▁swab	-2009
ilateral	-2010
▁comfortable	-2011
▁environments	-2012
▁ag	-2013
hist	-2014
ract	-2015
uous	-2016
▁hand	-2017
amines	-2018
▁place	-2019
▁venti	-2020
▁inform	-2021
▁spasms	-2022
▁surgeries	-2023
ices	-2024
idge	-2025
▁size	-2026
geusia	-2027
fibroma	-2028
▁bridge	-2029
▁however	-2030
▁antihist	-2031
dis	-2032
uct	-2033
▁fam	-2034
▁cric	-2035
▁noisy	-2036
▁teeth	-2037
▁adequate	-2038
▁flexible	-2039
▁qualified	-2040
▁reduction	-2041
▁recurrence	-2042
▁antihistamines	-2043
ember	-2044
itate	-2045
▁left	-2046
▁remember	-2047
icc	-2048
isod	-2049
▁aut	-2050
▁poor	-2051
▁episod	-2052
▁bruising	-2053
▁angiofibroma	-2054
met	-2055
ste	-2056
atic	-2057
▁glot	-2058
▁confir	-2059
▁packing	-2060
osinusitis	-2061
bal	-2062
can	-2063
cosis	-2064
▁perce	-2065
▁cheekb	-2066
▁saliva	-2067
▁corticosteroids	-2068
▁lab	-2069
▁try	-2070
essel	-2071
▁biopsy	-2072
▁vessel	-2073
▁respond	-2074
▁episodes	-2075
ru	-2076
ier	-2077
oce	-2078
res	-2079
ched	-2080
▁low	-2081
ances	-2082
▁benign	-2083
▁examine	-2084
▁eliminate	-2085
▁tightness	-2086
opharyngitis	-2087
▁communicate	-2088
▁septoplasty	-2089
),	-2090
▁bull	-2091
▁lesions	-2092
rad	-2093
▁bad	-2094
▁nat	-2095
▁coun	-2096
▁crac	-2097
▁resol	-2098
▁weight	-2099
▁fasting	-2100
▁properly	-2101
rup	-2102
▁garg	-2103
▁soft	-2104
cancer	-2105
terior	-2106
▁initi	-2107
ascular	-2108
ympanic	-2109
▁occurs	-2110
▁otosclerosis	-2111
ways	-2112
▁pit	-2113
▁down	-2114
▁less	-2115
alking	-2116
▁advis	-2117
▁level	-2118
▁thick	-2119
▁allows	-2120
▁stones	-2121
▁receive	-2122
▁presence	-2123
▁turbinate	-2124
ind	-2125
anal	-2126
▁flow	-2127
▁part	-2128
▁minimize	-2129
▁persists	-2130
▁eng	-2131
▁eye	-2132
▁grad	-2133
▁access	-2134
▁infected	-2135
▁moisture	-2136
▁rhinoplasty	-2137
ip	-2138
ica	-2139
ugs	-2140
▁od	-2141
inal	-2142
▁del	-2143
▁ras	-2144
▁unc	-2145
vities	-2146
▁cells	-2147
▁ulcers	-2148
▁strenuous	-2149
tory	-2150
usting	-2151
▁night	-2152
▁change	-2153
▁steroid	-2154
▁incisions	-2155
▁relaxation	-2156
▁suppurative	-2157
mer	-2158
self	-2159
▁sit	-2160
▁many	-2161
▁noise	-2162
if	-2163
▁sep	-2164
▁dust	-2165
▁fract	-2166
▁white	-2167
ervative	-2168
▁confirm	-2169
▁devices	-2170
▁directed	-2171
▁conservative	-2172
mb	-2173
▁z	-2174
ume	-2175
▁mut	-2176
▁eyes	-2177
enosis	-2178
▁counse	-2179
mentation	-2180
▁cavities	-2181
mera	-2182
▁mis	-2183
▁rule	-2184
▁multi	-2185
▁tradi	-2186
▁camera	-2187
ologists	-2188
▁chewing	-2189
▁balanced	-2190
▁stenosis	-2191
▁tracheal	-2192
▁traditional	-2193
ame	-2194
oral	-2195
▁lasts	-2196
▁confid	-2197
▁facility	-2198
▁arranging	-2199
▁reactions	-2200
ris	-2201
▁auto	-2202
▁debr	-2203
orrhag	-2204
▁neuro	-2205
ococcal	-2206
▁disrup	-2207
▁highly	-2208
▁levels	-2209
▁ventilation	-2210
av	-2211
oy	-2212
erd	-2213
ise	-2214
▁gro	-2215
iasis	-2216
iglot	-2217
▁allowing	-2218
▁providing	-2219
fac	-2220
▁bo	-2221
▁cat	-2222
osmia	-2223
ediate	-2224
herapy	-2225
tilage	-2226
▁pitch	-2227
▁always	-2228
▁family	-2229
▁choking	-2230
▁epiglot	-2231
▁talking	-2232
▁ensuring	-2233
▁increase	-2234
▁cartilage	-2235
▁immediate	-2236
pit	-2237
▁memb	-2238
▁situ	-2239
acting	-2240
pitched	-2241
▁become	-2242
▁pollen	-2243
▁esophag	-2244
▁removed	-2245
▁irritate	-2246
▁scarring	-2247
▁additionally	-2248
ured	-2249
rache	-2250
idered	-2251
ections	-2252
▁chemot	-2253
▁anterior	-2254
▁considered	-2255
▁chemotherapy	-2256
▁tympanostomy	-2257
loss	-2258
olor	-2259
vered	-2260
▁rate	-2261
▁stapes	-2262
▁membran	-2263
▁cracking	-2264
▁impacting	-2265
▁determining	-2266
cho	-2267
▁am	-2268
▁aw	-2269
acer	-2270
qued	-2271
▁box	-2272
▁hosp	-2273
▁stif	-2274
immune	-2275
▁lumps	-2276
▁arrange	-2277
▁overuse	-2278
▁passage	-2279
▁vessels	-2280
▁hospital	-2281
▁autoimmune	-2282
pts	-2283
▁pus	-2284
▁repe	-2285
▁rich	-2286
▁aqued	-2287
opharyng	-2288
▁covered	-2289
▁keeping	-2290
▁suspect	-2291
▁aqueduct	-2292
▁informed	-2293
▁scabbing	-2294
▁tympanoplasty	-2295
bl	-2296
ix	-2297
▁eas	-2298
▁lig	-2299
▁rob	-2300
▁gran	-2301
acusis	-2302
▁conce	-2303
▁contact	-2304
▁robotic	-2305
▁branchial	-2306
ze	-2307
ril	-2308
gered	-2309
▁nost	-2310
otrache	-2311
▁preval	-2312
▁nostril	-2313
▁exercise	-2314
▁includes	-2315
▁esophagus	-2316
▁counseling	-2317
▁injections	-2318
ape	-2319
▁aug	-2320
▁mov	-2321
▁set	-2322
ageal	-2323
▁admin	-2324
▁along	-2325
▁quick	-2326
▁breathe	-2327
▁patches	-2328
▁concepts	-2329
▁triggered	-2330
▁antibiotic	-2331
▁challenges	-2332
▁&	-2333
ton	-2334
ward	-2335
▁off	-2336
▁mris	-2337
torhin	-2338
▁const	-2339
▁regularly	-2340
▁septorhin	-2341
▁developing	-2342
▁laryngotrache	-2343
alat	-2344
cent	-2345
oman	-2346
rophy	-2347
▁self	-2348
opalat	-2349
▁types	-2350
▁direct	-2351
▁inside	-2352
▁getting	-2353
▁mutations	-2354
▁worsening	-2355
▁adjustments	-2356
▁stapedectomy	-2357
unt	-2358
▁bot	-2359
▁scr	-2360
▁flap	-2361
▁cranio	-2362
▁streng	-2363
▁natural	-2364
▁perception	-2365
▁augmentation	-2366
seud	-2367
ellow	-2368
▁pseud	-2369
surgery	-2370
▁yellow	-2371
▁cleaning	-2372
▁attending	-2373
▁stiffness	-2374
omandibular	-2375
xy	-2376
ina	-2377
▁new	-2378
acerb	-2379
▁cult	-2380
▁laby	-2381
▁adult	-2382
▁arise	-2383
▁limit	-2384
▁uvula	-2385
▁nerves	-2386
▁exacerb	-2387
▁yourself	-2388
▁laryngectomy	-2389
▁turbinectomy	-2390
long	-2391
osal	-2392
▁pet	-2393
▁glom	-2394
▁week	-2395
matory	-2396
ization	-2397
uration	-2398
▁choose	-2399
▁detect	-2400
▁clearing	-2401
▁radiating	-2402
▁myringoplasty	-2403
▁parotidectomy	-2404
ple	-2405
▁cr	-2406
▁glomus	-2407
▁session	-2408
▁someone	-2409
▁therapist	-2410
▁implantation	-2411
▁tw	-2412
▁flu	-2413
▁inst	-2414
lossia	-2415
▁sphen	-2416
▁performing	-2417
▁considering	-2418
▁x	-2419
aps	-2420
angu	-2421
athy	-2422
▁vel	-2423
▁expl	-2424
▁otor	-2425
▁suit	-2426
▁local	-2427
▁adults	-2428
▁hypert	-2429
▁moving	-2430
▁refers	-2431
formation	-2432
▁sessions	-2433
▁turbinates	-2434
joy	-2435
aden	-2436
mple	-2437
olith	-2438
▁enjoy	-2439
▁odors	-2440
▁nearby	-2441
▁prolong	-2442
▁decision	-2443
▁duration	-2444
▁ligation	-2445
▁improvement	-2446
akia	-2447
like	-2448
utri	-2449
▁war	-2450
ander	-2451
▁hicc	-2452
▁rins	-2453
▁dander	-2454
▁nasopharyngeal	-2455
▁velopharyngeal	-2456
ree	-2457
urs	-2458
rong	-2459
uffl	-2460
▁pul	-2461
pping	-2462
▁fitting	-2463
▁trained	-2464
▁movement	-2465
▁revision	-2466
▁formation	-2467
▁prolonged	-2468
▁concerning	-2469
▁meditation	-2470
▁postoperative	-2471
▁cricopharyngeal	-2472
der	-2473
▁jo	-2474
disp	-2475
▁age	-2476
▁hes	-2477
▁two	-2478
arrow	-2479
itive	-2480
ocele	-2481
▁same	-2482
▁step	-2483
uffled	-2484
ulitis	-2485
▁cysts	-2486
▁jugul	-2487
▁secre	-2488
anguage	-2489
▁device	-2490
▁strong	-2491
ondritis	-2492
▁muffled	-2493
▁obstruc	-2494
▁predisp	-2495
▁resolve	-2496
▁hesitate	-2497
▁decreased	-2498
▁hypertrophy	-2499
▁-	-2500
▁3	-2501
bac	-2502
chy	-2503
muc	-2504
cise	-2505
▁dil	-2506
bacco	-2507
▁itchy	-2508
▁possib	-2509
▁glottic	-2510
▁hiccups	-2511
▁prescri	-2512
▁tobacco	-2513
▁injection	-2514
▁conductive	-2515
▁perforated	-2516
reen	-2517
▁stom	-2518
facial	-2519
▁gloss	-2520
▁nutri	-2521
mphatic	-2522
▁lining	-2523
▁schedul	-2524
▁planning	-2525
▁cheekbone	-2526
▁correction	-2527
00	-2528
ok	-2529
osed	-2530
uffy	-2531
uven	-2532
▁lip	-2533
isted	-2534
▁stim	-2535
uvenile	-2536
▁angina	-2537
▁submuc	-2538
▁neuroma	-2539
▁generally	-2540
▁restoring	-2541
▁unilateral	-2542
▁une	-2543
▁cent	-2544
▁nons	-2545
ficien	-2546
▁goals	-2547
adenitis	-2548
cancerous	-2549
▁suitable	-2550
▁tympanic	-2551
▁transoral	-2552
ormy	-2553
▁fix	-2554
▁alth	-2555
▁case	-2556
▁haem	-2557
▁green	-2558
▁vital	-2559
▁groups	-2560
▁narrow	-2561
▁trachea	-2562
▁although	-2563
▁juvenile	-2564
▁nostrils	-2565
▁rhinosinusitis	-2566
nal	-2567
opl	-2568
que	-2569
rint	-2570
astro	-2571
cence	-2572
▁proj	-2573
▁stop	-2574
▁short	-2575
ndromic	-2576
▁perily	-2577
▁located	-2578
ormycosis	-2579
▁choosing	-2580
▁reposition	-2581
arp	-2582
his	-2583
▁wa	-2584
▁suf	-2585
ifest	-2586
▁conn	-2587
▁site	-2588
▁nonsy	-2589
▁range	-2590
▁sharp	-2591
▁instru	-2592
▁preser	-2593
▁skills	-2594
assisted	-2595
hiscence	-2596
ological	-2597
▁closure	-2598
▁present	-2599
▁manifest	-2600
▁discussing	-2601
▁nonsyndromic	-2602
not	-2603
izes	-2604
▁lin	-2605
pathy	-2606
▁sure	-2607
ushing	-2608
▁accum	-2609
▁optim	-2610
▁impair	-2611
▁weaken	-2612
▁bullosa	-2613
orrhagica	-2614
▁swimming	-2615
▁cancerous	-2616
▁neuropathy	-2617
▁mucormycosis	-2618
▁haemorrhagica	-2619
▁fas	-2620
▁loz	-2621
esthe	-2622
lioma	-2623
oling	-2624
resia	-2625
▁fail	-2626
▁hair	-2627
▁horm	-2628
▁areas	-2629
▁chest	-2630
▁indic	-2631
▁cannot	-2632
▁create	-2633
▁faster	-2634
▁fluids	-2635
▁prepar	-2636
▁choanal	-2637
▁focuses	-2638
▁prognos	-2639
▁working	-2640
▁lozenges	-2641
▁secretory	-2642
▁structure	-2643
▁audiometry	-2644
ocke	-2645
sump	-2646
▁her	-2647
▁hot	-2648
▁tmj	-2649
▁path	-2650
▁could	-2651
▁drink	-2652
▁plans	-2653
▁safely	-2654
sumption	-2655
▁atresia	-2656
▁branchio	-2657
▁gargling	-2658
▁frequency	-2659
▁placement	-2660
▁dehiscence	-2661
▁sinusotomy	-2662
▁predisposition	-2663
ney	-2664
omal	-2665
▁num	-2666
▁find	-2667
▁scan	-2668
ortion	-2669
▁track	-2670
ilities	-2671
▁radial	-2672
▁pollution	-2673
▁prognosis	-2674
▁si	-2675
agia	-2676
ared	-2677
ding	-2678
▁gum	-2679
▁spl	-2680
▁gene	-2681
▁focus	-2682
▁strept	-2683
▁posture	-2684
▁resting	-2685
▁stomach	-2686
▁drooling	-2687
▁otoscopy	-2688
▁steroids	-2689
▁obstructive	-2690
▁laryngoscopy	-2691
omy	-2692
owl	-2693
mmet	-2694
▁met	-2695
▁resh	-2696
▁uses	-2697
riction	-2698
▁gastro	-2699
▁pollut	-2700
▁splint	-2701
▁stimul	-2702
▁warmth	-2703
▁precise	-2704
▁directly	-2705
▁inserted	-2706
▁possibly	-2707
▁vascular	-2708
▁difference	-2709
▁exacerbate	-2710
-2	-2711
ique	-2712
▁fut	-2713
▁gon	-2714
▁gra	-2715
▁wid	-2716
ister	-2717
▁grin	-2718
▁aware	-2719
▁future	-2720
▁unique	-2721
▁inflamed	-2722
▁location	-2723
▁required	-2724
▁sleeping	-2725
▁irritating	-2726
▁protection	-2727
▁consumption	-2728
tmj	-2729
pite	-2730
▁cov	-2731
▁ful	-2732
▁mal	-2733
▁cosm	-2734
▁plac	-2735
fering	-2736
▁dilig	-2737
▁gently	-2738
▁tailor	-2739
▁target	-2740
▁blowing	-2741
▁despite	-2742
▁initial	-2743
▁cosmetic	-2744
▁grinding	-2745
▁optimize	-2746
▁strained	-2747
▁abilities	-2748
▁irritated	-2749
▁therapies	-2750
▁complement	-2751
▁information	-2752
▁expectations	-2753
eu	-2754
ga	-2755
sati	-2756
▁sch	-2757
▁sin	-2758
bbing	-2759
▁anat	-2760
▁gerd	-2761
▁aesthe	-2762
▁linked	-2763
▁second	-2764
▁locking	-2765
▁protect	-2766
▁singing	-2767
▁dysphonia	-2768
▁compresses	-2769
▁pollutants	-2770
cin	-2771
rea	-2772
idor	-2773
▁ask	-2774
▁asp	-2775
▁chin	-2776
▁cover	-2777
▁challen	-2778
▁damaged	-2779
▁diligently	-2780
fen	-2781
ount	-2782
oved	-2783
ocket	-2784
▁influ	-2785
▁loved	-2786
▁whist	-2787
patient	-2788
▁partic	-2789
▁rinses	-2790
▁visible	-2791
▁advisable	-2792
▁dysphagia	-2793
▁papilloma	-2794
▁whistling	-2795
▁hypernasal	-2796
▁challenging	-2797
gm	-2798
legm	-2799
▁1-2	-2800
astic	-2801
▁hard	-2802
ressing	-2803
▁action	-2804
▁phlegm	-2805
▁stridor	-2806
▁crusting	-2807
▁repeated	-2808
▁weakened	-2809
▁outpatient	-2810
oxic	-2811
ulum	-2812
▁yoga	-2813
▁fully	-2814
▁large	-2815
▁dietary	-2816
▁scratch	-2817
▁viruses	-2818
▁brainstem	-2819
▁deviation	-2820
▁prevalent	-2821
▁throbbing	-2822
bup	-2823
ema	-2824
▁os	-2825
phil	-2826
▁equ	-2827
bupro	-2828
illed	-2829
▁cost	-2830
▁lung	-2831
ensive	-2832
▁heart	-2833
▁shrin	-2834
▁amount	-2835
▁ibupro	-2836
▁malign	-2837
▁region	-2838
▁interfe	-2839
▁membrane	-2840
▁ibuprofen	-2841
▁epiglottis	-2842
▁impairment	-2843
cet	-2844
ray	-2845
free	-2846
time	-2847
▁cro	-2848
▁lem	-2849
ophen	-2850
▁hear	-2851
oscope	-2852
philis	-2853
ration	-2854
satile	-2855
▁those	-2856
▁influen	-2857
▁swimmer	-2858
▁variety	-2859
aminophen	-2860
▁gradually	-2861
▁distortion	-2862
▁triggering	-2863
▁repositioning	-2864
yl	-2865
alve	-2866
hand	-2867
▁tip	-2868
▁acet	-2869
▁bowl	-2870
▁clin	-2871
mmetry	-2872
▁imbal	-2873
▁shape	-2874
▁tract	-2875
▁valve	-2876
ability	-2877
▁resume	-2878
▁activity	-2879
▁adenoids	-2880
▁administ	-2881
▁differen	-2882
▁scratchy	-2883
▁endoscope	-2884
▁pulsatile	-2885
▁preoperative	-2886
▁acetaminophen	-2887
line	-2888
onal	-2889
arynx	-2890
asing	-2891
▁bump	-2892
▁cand	-2893
▁otot	-2894
▁equal	-2895
▁extend	-2896
▁culture	-2897
▁plastic	-2898
▁ranging	-2899
▁analysis	-2900
▁multiple	-2901
▁ototoxic	-2902
▁previous	-2903
▁schedule	-2904
omfortable	-2905
▁confident	-2906
▁extensive	-2907
▁monitored	-2908
▁promoting	-2909
▁situation	-2910
▁gonococcal	-2911
▁instruments	-2912
▁tympanometry	-2913
▁mastoidectomy	-2914
▁uncomfortable	-2915
cz	-2916
▁bir	-2917
▁ecz	-2918
▁hab	-2919
▁pos	-2920
ausea	-2921
heter	-2922
▁chem	-2923
▁look	-2924
cision	-2925
▁hands	-2926
▁sinup	-2927
▁spasm	-2928
ringing	-2929
▁eczema	-2930
▁granul	-2931
▁regain	-2932
▁trying	-2933
▁closing	-2934
▁defects	-2935
▁catheter	-2936
▁dripping	-2937
▁sinuplasty	-2938
▁specializes	-2939
▁hypernasality	-2940
yg	-2941
iss	-2942
apid	-2943
▁bud	-2944
▁mig	-2945
▁zyg	-2946
entle	-2947
rinth	-2948
▁enti	-2949
▁glue	-2950
▁rash	-2951
ducing	-2952
▁every	-2953
▁plays	-2954
▁rapid	-2955
lasting	-2956
▁closed	-2957
▁entire	-2958
▁gentle	-2959
▁zygoma	-2960
▁restric	-2961
▁decrease	-2962
▁fracture	-2963
▁strengthe	-2964
▁differenti	-2965
ub	-2966
cap	-2967
ired	-2968
mati	-2969
▁bul	-2970
▁eat	-2971
allic	-2972
arily	-2973
iting	-2974
▁fits	-2975
▁harm	-2976
filled	-2977
nition	-2978
▁colds	-2979
▁diver	-2980
▁drugs	-2981
▁elect	-2982
▁refer	-2983
▁swabs	-2984
matitis	-2985
raction	-2986
▁candid	-2987
▁breathy	-2988
▁problem	-2989
oloration	-2990
▁chemical	-2991
▁delicate	-2992
▁metallic	-2993
▁misalign	-2994
▁position	-2995
▁labyrinth	-2996
▁malignant	-2997
▁practices	-2998
▁zygomatic	-2999
▁secondhand	-3000
▁evaluations	-3001
▁recognition	-3002
▁inflammatory	-3003
▁discoloration	-3004
na	-3005
ids	-3006
▁1.	-3007
▁ve	-3008
hers	-3009
roll	-3010
esoph	-3011
▁echo	-3012
ficial	-3013
atively	-3014
▁engage	-3015
▁debride	-3016
▁jugular	-3017
▁swallow	-3018
esophageal	-3019
▁reconstruc	-3020
▁preparation	-3021
▁craniofacial	-3022
tit	-3023
▁2.	-3024
less	-3025
omen	-3026
tial	-3027
▁tone	-3028
▁birth	-3029
▁hours	-3030
▁prost	-3031
▁shrink	-3032
▁airways	-3033
▁engaging	-3034
▁deformity	-3035
▁scheduled	-3036
▁accurately	-3037
▁uvulopalat	-3038
▁debridement	-3039
▁hyperacusis	-3040
▁myringotomy	-3041
▁accumulation	-3042
▁differentiate	-3043
de	-3044
opt	-3045
▁ol	-3046
▁amp	-3047
duced	-3048
plugs	-3049
sence	-3050
▁mass	-3051
▁total	-3052
▁wound	-3053
▁simple	-3054
▁absence	-3055
▁divertic	-3056
▁earplugs	-3057
▁auricular	-3058
▁technique	-3059
▁beneficial	-3060
opharyngoplasty	-3061
py	-3062
za	-3063
dro	-3064
tia	-3065
▁emb	-3066
▁occ	-3067
▁vol	-3068
ather	-3069
▁liqu	-3070
▁stro	-3071
▁speak	-3072
induced	-3073
ficiency	-3074
reducing	-3075
▁helping	-3076
▁migrain	-3077
▁clinical	-3078
▁compared	-3079
▁coverage	-3080
▁repairing	-3081
▁relatively	-3082
▁constriction	-3083
▁labyrinthitis	-3084
hl	-3085
ram	-3086
tes	-3087
fied	-3088
head	-3089
▁sim	-3090
▁way	-3091
▁cope	-3092
▁neur	-3093
▁very	-3094
rommet	-3095
▁bones	-3096
▁fight	-3097
▁altern	-3098
▁echoes	-3099
▁forearm	-3100
▁gradual	-3101
▁whether	-3102
▁worsens	-3103
endoscopy	-3104
▁hormonal	-3105
▁microtia	-3106
▁neuritis	-3107
▁diverticulum	-3108
▁laryngotracheal	-3109
ef	-3110
ras	-3111
ush	-3112
▁pin	-3113
ophil	-3114
terol	-3115
▁free	-3116
▁fren	-3117
▁once	-3118
▁oste	-3119
▁stic	-3120
▁super	-3121
▁debris	-3122
▁hoarse	-3123
▁nausea	-3124
fication	-3125
▁grommet	-3126
▁respons	-3127
▁extended	-3128
▁impacted	-3129
▁language	-3130
▁correcting	-3131
ci	-3132
gn	-3133
ha	-3134
abe	-3135
ake	-3136
hea	-3137
oly	-3138
odic	-3139
rhea	-3140
thma	-3141
▁cot	-3142
▁hem	-3143
▁top	-3144
going	-3145
escent	-3146
fusion	-3147
onsill	-3148
plasty	-3149
urgery	-3150
▁aimed	-3151
▁becom	-3152
▁diabe	-3153
▁stent	-3154
esterol	-3155
hersome	-3156
▁asthma	-3157
▁cotton	-3158
▁jawline	-3159
▁mucosal	-3160
▁ongoing	-3161
▁ablation	-3162
▁fixation	-3163
▁spasmodic	-3164
▁bothersome	-3165
▁specialize	-3166
▁characteris	-3167
▁cholesterol	-3168
▁prescription	-3169
rog	-3170
upt	-3171
otor	-3172
thro	-3173
utes	-3174
▁mob	-3175
▁mor	-3176
ospas	-3177
thing	-3178
▁clar	-3179
▁medi	-3180
▁reas	-3181
▁rupt	-3182
▁antif	-3183
▁aural	-3184
▁doesn	-3185
▁drive	-3186
▁immun	-3187
▁prior	-3188
▁spray	-3189
▁thyro	-3190
▁promin	-3191
osurgery	-3192
▁cranial	-3193
▁moistur	-3194
▁morning	-3195
▁turning	-3196
▁sphenoid	-3197
▁bilateral	-3198
▁completely	-3199
▁laryngospas	-3200
▁stapedotomy	-3201
▁thyroplasty	-3202
▁improvements	-3203
ade	-3204
gia	-3205
lev	-3206
▁3.	-3207
▁sl	-3208
osin	-3209
arden	-3210
▁appl	-3211
▁heav	-3212
▁schw	-3213
▁eosin	-3214
▁raspy	-3215
▁widen	-3216
▁carcin	-3217
▁easier	-3218
▁openly	-3219
▁lasting	-3220
▁blocking	-3221
▁controll	-3222
▁diabetes	-3223
▁effusion	-3224
▁forehead	-3225
▁sensitive	-3226
▁eosinophil	-3227
▁retraction	-3228
▁strengthen	-3229
▁radiosurgery	-3230
▁sialendoscopy	-3231
irc	-3232
suf	-3233
uck	-3234
▁er	-3235
glot	-3236
omon	-3237
osen	-3238
otac	-3239
tery	-3240
▁ant	-3241
urney	-3242
▁able	-3243
▁bron	-3244
▁circ	-3245
▁ease	-3246
▁phen	-3247
▁requ	-3248
▁soon	-3249
▁tool	-3250
omonas	-3251
reotac	-3252
ultras	-3253
▁aging	-3254
optosis	-3255
oscopic	-3256
▁artery	-3257
▁habits	-3258
▁physic	-3259
▁stroke	-3260
▁becomes	-3261
▁journey	-3262
▁mediast	-3263
reotactic	-3264
▁creating	-3265
▁jugulare	-3266
▁otorrhea	-3267
▁positive	-3268
ultrasound	-3269
▁decisions	-3270
▁fractures	-3271
▁suffering	-3272
▁antifungal	-3273
▁confidence	-3274
▁surgically	-3275
▁pseudomonas	-3276
▁uvuloplasty	-3277
▁obstructions	-3278
▁thyroidectomy	-3279
▁identification	-3280
sc	-3281
osy	-3282
aren	-3283
irst	-3284
lify	-3285
▁aer	-3286
apedi	-3287
hinia	-3288
iring	-3289
ocial	-3290
ocyst	-3291
opexy	-3292
▁bulb	-3293
▁fung	-3294
▁gurg	-3295
▁hole	-3296
▁repl	-3297
▁tiny	-3298
gotomy	-3299
▁exams	-3300
▁graft	-3301
▁otomy	-3302
▁parts	-3303
▁rates	-3304
▁stone	-3305
▁stuck	-3306
▁incomp	-3307
▁intake	-3308
▁phases	-3309
▁volume	-3310
ostapedi	-3311
othyroid	-3312
▁advised	-3313
▁amplify	-3314
▁explore	-3315
▁subglot	-3316
▁develops	-3317
▁expected	-3318
▁gurgling	-3319
▁myectomy	-3320
▁stopping	-3321
▁uvulitis	-3322
▁carcinoma	-3323
▁chemicals	-3324
▁dysgeusia	-3325
▁migraines	-3326
▁movements	-3327
▁prominent	-3328
▁requiring	-3329
▁mandibular	-3330
▁pseudocyst	-3331
▁ultrasound	-3332
▁laryngotomy	-3333
ostapediopexy	-3334
▁laryngospasm	-3335
▁stereotactic	-3336
▁vascularized	-3337
uli	-3338
▁asy	-3339
▁mac	-3340
▁org	-3341
▁oxy	-3342
drops	-3343
omyel	-3344
ondyl	-3345
oster	-3346
wards	-3347
▁dipl	-3348
▁lear	-3349
flower	-3350
omotor	-3351
quired	-3352
▁bumps	-3353
▁cauli	-3354
▁color	-3355
▁croup	-3356
▁hairy	-3357
▁heavy	-3358
▁minor	-3359
▁times	-3360
stances	-3361
thritis	-3362
▁endoly	-3363
▁macrog	-3364
▁microl	-3365
▁oxygen	-3366
▁surfer	-3367
▁benefit	-3368
▁collaps	-3369
omyelitis	-3370
▁acquired	-3371
▁obstruct	-3372
▁specified	-3373
▁cellulitis	-3374
▁otomycosis	-3375
▁subglottic	-3376
▁cauliflower	-3377
▁microlaryng	-3378
▁progression	-3379
▁macroglossia	-3380
▁misalignment	-3381
▁restrictions	-3382
▁specializing	-3383
▁endolymphatic	-3384
▁osteomyelitis	-3385
uk	-3386
ffe	-3387
ism	-3388
ral	-3389
inse	-3390
thin	-3391
▁ery	-3392
▁inf	-3393
▁vas	-3394
asion	-3395
terns	-3396
ukopl	-3397
omenon	-3398
▁aspir	-3399
▁boost	-3400
▁catar	-3401
▁flare	-3402
▁mater	-3403
▁otosy	-3404
▁palat	-3405
▁rinse	-3406
▁usher	-3407
▁virus	-3408
▁bronch	-3409
▁social	-3410
▁stuffy	-3411
▁subman	-3412
▁temple	-3413
▁arhinia	-3414
▁clarity	-3415
▁leukopl	-3416
▁minutes	-3417
▁aglossia	-3418
▁mobility	-3419
▁patterns	-3420
▁narrowing	-3421
▁tonsillar	-3422
▁vasomotor	-3423
▁diplacusis	-3424
▁influenced	-3425
▁phenomenon	-3426
▁situations	-3427
▁leukoplakia	-3428
▁otosyphilis	-3429
▁examinations	-3430
▁glossoptosis	-3431
▁ethmoidectomy	-3432
▁submandibular	-3433
).	-3434
burg	-3435
odyn	-3436
▁cob	-3437
▁vit	-3438
print	-3439
utery	-3440
water	-3441
▁call	-3442
▁elev	-3443
▁numb	-3444
hesive	-3445
phonia	-3446
plasia	-3447
printz	-3448
▁inher	-3449
▁insuf	-3450
▁quite	-3451
▁reshap	-3452
▁uneven	-3453
▁ageusia	-3454
▁catarrh	-3455
▁interna	-3456
▁setting	-3457
▁transpl	-3458
ardenburg	-3459
▁adhesive	-3460
▁hyposmia	-3461
▁inhaling	-3462
▁occasion	-3463
▁soreness	-3464
▁targeted	-3465
▁interfere	-3466
▁medically	-3467
▁responded	-3468
▁physically	-3469
▁assessments	-3470
▁laryngocele	-3471
▁streptococcal	-3472
▁corticosteroid	-3473
cus	-3474
ont	-3475
wig	-3476
acia	-3477
cies	-3478
ient	-3479
ites	-3480
sych	-3481
umen	-3482
zold	-3483
▁cap	-3484
▁oil	-3485
▁sul	-3486
ables	-3487
algia	-3488
artze	-3489
titud	-3490
ulous	-3491
usher	-3492
vaged	-3493
▁diff	-3494
▁fall	-3495
▁then	-3496
ffeine	-3497
gether	-3498
omical	-3499
plakia	-3500
▁first	-3501
▁heals	-3502
▁necro	-3503
▁psych	-3504
▁tools	-3505
▁bezold	-3506
▁center	-3507
▁lemier	-3508
▁longer	-3509
▁perich	-3510
▁placed	-3511
▁ranula	-3512
▁record	-3513
▁serous	-3514
▁transt	-3515
omalacia	-3516
▁aphonia	-3517
▁cerumen	-3518
▁ensures	-3519
▁erythro	-3520
▁otalgia	-3521
▁periods	-3522
▁reasons	-3523
▁caffeine	-3524
▁canalith	-3525
▁parosmia	-3526
▁superior	-3527
▁imbalance	-3528
▁schwartze	-3529
▁sialolith	-3530
▁stimulate	-3531
▁anatomical	-3532
▁frenectomy	-3533
▁processing	-3534
▁projecting	-3535
▁rhinoscler	-3536
▁cricothyroid	-3537
▁eosinophilic	-3538
▁epiglottitis	-3539
▁sialadenitis	-3540
▁erythroplakia	-3541
▁laryngoplasty	-3542
▁transtympanic	-3543
▁sphenoidectomy	-3544
of	-3545
get	-3546
ini	-3547
ock	-3548
ancy	-3549
mpty	-3550
omor	-3551
ossa	-3552
phic	-3553
uria	-3554
▁fru	-3555
▁gli	-3556
▁lud	-3557
▁sad	-3558
▁sut	-3559
blest	-3560
eness	-3561
▁cure	-3562
▁mond	-3563
▁myoc	-3564
▁pend	-3565
capton	-3566
chored	-3567
entist	-3568
ferior	-3569
lement	-3570
rhagia	-3571
▁antro	-3572
▁fossa	-3573
choanal	-3574
▁assist	-3575
▁diving	-3576
▁fruits	-3577
▁herbal	-3578
▁ludwig	-3579
▁mucous	-3580
▁pocket	-3581
▁presby	-3582
▁saddle	-3583
▁sulcus	-3584
blestone	-3585
omorphic	-3586
printzen	-3587
tiveness	-3588
▁adenoma	-3589
▁dentist	-3590
▁inherit	-3591
▁minimal	-3592
▁pendred	-3593
▁pharyng	-3594
▁ravaged	-3595
▁towards	-3596
▁vitamin	-3597
▁alcapton	-3598
▁inferior	-3599
▁prepared	-3600
▁reaction	-3601
▁together	-3602
▁dysplasia	-3603
▁perilymph	-3604
▁recurring	-3605
▁stapedial	-3606
▁cheekbones	-3607
▁esophageal	-3608
▁otorrhagia	-3609
▁overactive	-3610
▁shprintzen	-3611
▁submucosal	-3612
▁cobblestone	-3613
▁ototoxicity	-3614
▁tracheotomy	-3615
▁alcaptonuria	-3616
▁microsurgery	-3617
▁rhinopharyng	-3618
▁insufficiency	-3619
▁administration	-3620
▁perichondritis	-3621
▁pharyngoplasty	-3622
▁sialolithiasis	-3623
-1	-3624
pv	-3625
ibr	-3626
icy	-3627
lon	-3628
oep	-3629
oor	-3630
rat	-3631
cher	-3632
ithe	-3633
llio	-3634
uble	-3635
uloc	-3636
▁hig	-3637
▁saf	-3638
▁sel	-3639
▁tre	-3640
▁tug	-3641
agang	-3642
aling	-3643
auric	-3644
cusis	-3645
lonus	-3646
strea	-3647
▁give	-3648
▁happ	-3649
▁made	-3650
rophic	-3651
▁accid	-3652
▁achal	-3653
▁empty	-3654
▁lungs	-3655
▁veget	-3656
▁ostial	-3657
▁tullio	-3658
itonsill	-3659
streaked	-3660
▁cautery	-3661
▁topical	-3662
▁tugging	-3663
▁warthin	-3664
▁weather	-3665
opalatine	-3666
▁mucocele	-3667
▁paragang	-3668
itonsillar	-3669
▁achalasia	-3670
▁arthritis	-3671
▁implement	-3672
▁myoclonus	-3673
▁parotitis	-3674
▁rhinolith	-3675
▁saltwater	-3676
▁submucous	-3677
▁preserving	-3678
▁vegetables	-3679
▁mediastinal	-3680
▁pleomorphic	-3681
▁presbycusis	-3682
▁waardenburg	-3683
▁antrochoanal	-3684
▁aerosinusitis	-3685
▁canalithiasis	-3686
▁effectiveness	-3687
▁laryngomalacia	-3688
▁sphenopalatine	-3689
ety	-3690
omn	-3691
▁pu	-3692
agle	-3693
icca	-3694
icis	-3695
infl	-3696
supp	-3697
udal	-3698
▁giv	-3699
▁obs	-3700
▁put	-3701
effec	-3702
inary	-3703
ondro	-3704
ordin	-3705
oryza	-3706
▁ages	-3707
▁frey	-3708
▁lift	-3709
▁teas	-3710
▁year	-3711
endage	-3712
ission	-3713
titude	-3714
ularis	-3715
verted	-3716
▁align	-3717
▁attic	-3718
▁eagle	-3719
▁exact	-3720
▁facil	-3721
▁hemot	-3722
▁shock	-3723
▁sicca	-3724
▁spicy	-3725
mentosa	-3726
oepithe	-3727
ondylar	-3728
ympanum	-3729
▁ascher	-3730
▁called	-3731
▁caudal	-3732
▁cheeks	-3733
▁coryza	-3734
▁glioma	-3735
▁gusher	-3736
▁intens	-3737
▁intrat	-3738
▁microv	-3739
▁mucoid	-3740
▁safety	-3741
alescent	-3742
anchored	-3743
ondroder	-3744
otherapy	-3745
▁conduct	-3746
▁coordin	-3747
▁helicis	-3748
▁lifting	-3749
▁mondini	-3750
▁retroph	-3751
auricular	-3752
▁atrophic	-3753
▁equalize	-3754
▁inverted	-3755
▁products	-3756
▁appendage	-3757
▁ethmoidal	-3758
▁nodularis	-3759
▁reshaping	-3760
suppurative	-3761
ulocondylar	-3762
▁chondroder	-3763
▁increasing	-3764
▁transplant	-3765
▁tympanitis	-3766
▁compression	-3767
▁distressing	-3768
▁responsible	-3769
▁hemotympanum	-3770
▁preauricular	-3771
▁vestibulitis	-3772
▁intratympanic	-3773
▁microvascular	-3774
▁peritonsillar	-3775
▁rhinoscleroma	-3776
▁nasopharyngitis	-3777
▁retropharyngeal	-3778
tr	-3779
▁fo	-3780
blas	-3781
bral	-3782
cipl	-3783
euro	-3784
gerd	-3785
ilar	-3786
toma	-3787
▁oti	-3788
▁wag	-3789
acher	-3790
aural	-3791
other	-3792
otore	-3793
raphy	-3794
tidis	-3795
▁buds	-3796
▁hypo	-3797
▁vibr	-3798
apsing	-3799
odynia	-3800
rebral	-3801
tizing	-3802
discipl	-3803
ioneuro	-3804
▁costen	-3805
▁esthes	-3806
▁otitic	-3807
▁travel	-3808
▁wagner	-3809
▁zoster	-3810
blastoma	-3811
▁auricle	-3812
▁bullous	-3813
▁collins	-3814
▁consist	-3815
▁daytime	-3816
▁similar	-3817
effective	-3818
▁flushing	-3819
▁improper	-3820
▁palatine	-3821
▁patulous	-3822
▁treacher	-3823
chondritis	-3824
▁achieving	-3825
▁membranes	-3826
▁coalescent	-3827
▁craniotomy	-3828
▁hypogeusia	-3829
astoidectomy	-3830
disciplinary	-3831
oepithelioma	-3832
▁experiences	-3833
▁glossodynia	-3834
▁contributors	-3835
▁esthesioneuro	-3836
▁psychological	-3837
▁nonsuppurative	-3838
ath	-3839
hec	-3840
urb	-3841
vas	-3842
asic	-3843
cing	-3844
omas	-3845
▁ide	-3846
▁sil	-3847
▁tox	-3848
ticus	-3849
usual	-3850
▁erad	-3851
▁pans	-3852
▁room	-3853
▁somn	-3854
▁unex	-3855
anasal	-3856
etence	-3857
ularly	-3858
▁basic	-3859
▁mites	-3860
▁pregn	-3861
▁reson	-3862
▁sialo	-3863
▁loudly	-3864
▁others	-3865
▁oticus	-3866
otorenal	-3867
▁diffuse	-3868
▁disturb	-3869
▁hydrops	-3870
▁jugulot	-3871
▁pharynx	-3872
▁rhinoce	-3873
▁sutures	-3874
▁unusual	-3875
▁granular	-3876
▁otoscope	-3877
▁quitting	-3878
▁tympanom	-3879
▁glottidis	-3880
▁granuloma	-3881
▁paranasal	-3882
▁postaural	-3883
▁primarily	-3884
▁aesthetics	-3885
▁aspiration	-3886
▁facilitate	-3887
▁necrotizing	-3888
▁somnoplasty	-3889
▁branchiootic	-3890
▁coordination	-3891
▁incompetence	-3892
▁pansinusitis	-3893
▁paraganglioma	-3894
▁perilymphatic	-3895
▁rhinocerebral	-3896
▁sialoadenitis	-3897
▁hypopharyngeal	-3898
▁jugulotympanic	-3899
lo	-3900
me	-3901
ob	-3902
inc	-3903
ony	-3904
ugg	-3905
angi	-3906
emed	-3907
trum	-3908
▁don	-3909
▁fri	-3910
▁ill	-3911
▁sug	-3912
tches	-3913
▁touc	-3914
atures	-3915
hiness	-3916
threat	-3917
▁board	-3918
▁given	-3919
▁puffy	-3920
▁taken	-3921
▁tooth	-3922
▁young	-3923
hectomy	-3924
▁charge	-3925
▁contin	-3926
▁deemed	-3927
▁friend	-3928
▁medica	-3929
▁object	-3930
▁regurg	-3931
▁remain	-3932
▁silent	-3933
▁enlarge	-3934
▁infants	-3935
▁yelling	-3936
▁altitude	-3937
▁brushing	-3938
▁material	-3939
▁preserve	-3940
▁spectrum	-3941
▁strength	-3942
▁relapsing	-3943
threatening	-3944
▁administer	-3945
▁minimizing	-3946
▁occasional	-3947
▁particularly	-3948
▁medicamentosa	-3949
▁regurgitation	-3950
▁polychondritis	-3951
pi	-3952
000	-3953
ane	-3954
kes	-3955
nhl	-3956
set	-3957
▁reb	-3958
▁was	-3959
aning	-3960
ature	-3961
▁pott	-3962
inflam	-3963
istive	-3964
▁apply	-3965
▁mening	-3966
▁strugg	-3967
▁central	-3968
▁friends	-3969
▁collapse	-3970
▁labyrint	-3971
▁assistive	-3972
▁relieving	-3973
▁straining	-3974
▁tympanicum	-3975
▁labyrinthectomy	-3976
ca	-3977
ht	-3978
ld	-3979
▁7	-3980
uba	-3981
aret	-3982
ians	-3983
▁ice	-3984
▁tel	-3985
certi	-3986
tivir	-3987
▁lack	-3988
icated	-3989
▁among	-3990
▁attac	-3991
▁embol	-3992
▁makes	-3993
▁reput	-3994
▁scuba	-3995
angiect	-3996
▁gargle	-3997
▁transm	-3998
surgical	-3999
▁antivir	-4000
▁blister	-4001
▁disrupt	-4002
▁illness	-4003
▁liquids	-4004
certified	-4005
▁constant	-4006
▁improves	-4007
▁assessing	-4008
▁resonance	-4009
▁prevalence	-4010
▁telangiect	-4011
inflammatory	-4012
▁arrangements	-4013
▁noncancerous	-4014
0%	-4015
▁cal	-4016
▁cig	-4017
▁ded	-4018
▁dos	-4019
▁kid	-4020
▁swe	-4021
▁too	-4022
ained	-4023
itize	-4024
ology	-4025
point	-4026
▁read	-4027
outing	-4028
▁light	-4029
ococcus	-4030
plained	-4031
language	-4032
▁cigaret	-4033
▁guiding	-4034
▁limited	-4035
▁measure	-4036
▁microsc	-4037
▁picking	-4038
▁program	-4039
▁splints	-4040
▁humidity	-4041
▁shouting	-4042
▁adjusting	-4043
▁anesthesi	-4044
▁listening	-4045
▁nutrients	-4046
▁pregnancy	-4047
▁prescribe	-4048
▁suspected	-4049
▁enlargement	-4050
▁functioning	-4051
▁unexplained	-4052
▁disturbances	-4053
▁characteristics	-4054
,000	-4055
dies	-4056
oney	-4057
rust	-4058
▁pne	-4059
▁tri	-4060
ering	-4061
▁real	-4062
▁warr	-4063
othing	-4064
▁floss	-4065
▁honey	-4066
▁offer	-4067
▁scabs	-4068
ography	-4069
▁loosen	-4070
▁offers	-4071
▁proven	-4072
▁report	-4073
▁series	-4074
▁dealing	-4075
▁meaning	-4076
▁wearing	-4077
▁draining	-4078
▁lemierre	-4079
▁pinpoint	-4080
▁ruptured	-4081
▁antiviral	-4082
▁asymmetry	-4083
▁cigarette	-4084
▁eradicate	-4085
▁shortness	-4086
▁meningitis	-4087
▁physicians	-4088
▁projection	-4089
▁reconstruct	-4090
▁)	-4091
▁4	-4092
▁10	-4093
ably	-4094
▁agg	-4095
▁cur	-4096
▁ray	-4097
ommon	-4098
oping	-4099
stead	-4100
vical	-4101
▁dest	-4102
▁ment	-4103
▁mold	-4104
▁sour	-4105
▁alter	-4106
▁fungi	-4107
▁onset	-4108
▁organ	-4109
oration	-4110
▁enough	-4111
orrhagic	-4112
▁feeding	-4113
▁produce	-4114
▁cervical	-4115
▁excision	-4116
▁focusing	-4117
▁menieres	-4118
▁uncommon	-4119
▁aesthetic	-4120
▁conducted	-4121
▁inherited	-4122
▁reputable	-4123
▁something	-4124
▁bronchitis	-4125
▁conduction	-4126
▁sensations	-4127
▁controlling	-4128
▁hemorrhagic	-4129
▁telangiectasia	-4130
orn	-4131
uff	-4132
xim	-4133
▁ed	-4134
ergy	-4135
lfac	-4136
snhl	-4137
▁bro	-4138
▁clen	-4139
▁foul	-4140
▁stra	-4141
▁util	-4142
▁olfac	-4143
▁paren	-4144
▁scrat	-4145
oplasia	-4146
▁receiv	-4147
ervation	-4148
▁cancers	-4149
▁blisters	-4150
▁cultures	-4151
▁initiate	-4152
▁alignment	-4153
▁olfactory	-4154
▁tailoring	-4155
▁deviations	-4156
▁hypoplasia	-4157
▁therapists	-4158
▁transmission	-4159
▁5	-4160
bat	-4161
ros	-4162
▁ps	-4163
orts	-4164
ected	-4165
▁flav	-4166
▁know	-4167
▁rese	-4168
▁slow	-4169
▁flush	-4170
▁found	-4171
▁learn	-4172
▁pneum	-4173
▁ssnhl	-4174
▁combat	-4175
▁temper	-4176
▁current	-4177
▁parents	-4178
▁removes	-4179
▁signals	-4180
▁contamin	-4181
▁enhanced	-4182
▁features	-4183
▁sticking	-4184
▁symmetry	-4185
▁vitamins	-4186
▁clenching	-4187
▁splinting	-4188
▁audiologist	-4189
▁immediately	-4190
▁streptococcus	-4191
sid	-4192
▁ce	-4193
havi	-4194
▁ter	-4195
▁why	-4196
oking	-4197
▁glob	-4198
▁whis	-4199
entive	-4200
▁lower	-4201
▁active	-4202
▁sample	-4203
▁visits	-4204
▁desired	-4205
▁reshape	-4206
▁smaller	-4207
▁grommets	-4208
▁mentally	-4209
▁prosthes	-4210
▁pneumonia	-4211
▁precision	-4212
▁struggling	-4213
▁comfortably	-4214
▁obstructing	-4215
▁contaminated	-4216
cep	-4217
ips	-4218
ered	-4219
pped	-4220
istic	-4221
▁fold	-4222
▁kill	-4223
▁leak	-4224
▁nurs	-4225
▁show	-4226
rating	-4227
▁maneu	-4228
▁destro	-4229
▁easily	-4230
▁grafts	-4231
▁needle	-4232
▁sports	-4233
▁concern	-4234
▁distinc	-4235
▁prosthe	-4236
▁deficien	-4237
▁numbness	-4238
▁profound	-4239
▁candidate	-4240
▁intensity	-4241
▁nutrition	-4242
▁realistic	-4243
▁complexity	-4244
▁indicating	-4245
▁scheduling	-4246
▁substances	-4247
▁alternative	-4248
▁humidifiers	-4249
▁deficiencies	-4250
▁consultations	-4251
▁6	-4252
agm	-4253
aly	-4254
ots	-4255
upp	-4256
bric	-4257
pass	-4258
side	-4259
▁onc	-4260
▁tro	-4261
▁yaw	-4262
reaks	-4263
stems	-4264
▁func	-4265
▁inad	-4266
▁ligh	-4267
▁pron	-4268
atives	-4269
ighten	-4270
▁botox	-4271
▁front	-4272
▁phase	-4273
▁scope	-4274
▁speed	-4275
▁breaks	-4276
▁bypass	-4277
▁dosage	-4278
▁globus	-4279
▁indoor	-4280
▁kidney	-4281
▁lubric	-4282
▁regard	-4283
▁resear	-4284
▁anatomy	-4285
▁another	-4286
▁destroy	-4287
▁flavors	-4288
▁impacts	-4289
▁inspect	-4290
▁systems	-4291
▁throats	-4292
▁warrant	-4293
▁flossing	-4294
▁functions	-4295
▁involving	-4296
▁relaxants	-4297
▁traumatic	-4298
▁prioritize	-4299
▁ulceration	-4300
▁pathologist	-4301
▁restoration	-4302
ars	-4303
ium	-4304
pap	-4305
avig	-4306
cour	-4307
▁bed	-4308
▁bre	-4309
▁cus	-4310
▁pop	-4311
▁sac	-4312
▁wat	-4313
athic	-4314
iving	-4315
surge	-4316
ulate	-4317
uming	-4318
zzing	-4319
▁heat	-4320
▁idea	-4321
▁lvas	-4322
▁orig	-4323
aneous	-4324
esteem	-4325
pering	-4326
▁drips	-4327
▁fetal	-4328
▁navig	-4329
▁older	-4330
▁scler	-4331
▁years	-4332
▁custom	-4333
▁encour	-4334
▁higher	-4335
▁misuse	-4336
▁nature	-4337
▁nurses	-4338
▁revers	-4339
▁though	-4340
iopathic	-4341
▁buzzing	-4342
▁experts	-4343
▁finding	-4344
▁quicker	-4345
▁unstead	-4346
▁distress	-4347
▁navigate	-4348
▁sweating	-4349
▁accidents	-4350
▁dedicated	-4351
▁exploring	-4352
▁spreading	-4353
▁adequately	-4354
▁inadequate	-4355
▁moisturize	-4356
▁neurosurge	-4357
▁prosthetic	-4358
▁ineffective	-4359
▁observation	-4360
▁alternatives	-4361
▁embolization	-4362
▁irritability	-4363
):	-4364
bar	-4365
ills	-4366
mitt	-4367
uild	-4368
▁cry	-4369
▁fat	-4370
▁mod	-4371
▁sof	-4372
▁vac	-4373
▁vom	-4374
▁educ	-4375
▁wide	-4376
▁wind	-4377
ancing	-4378
phones	-4379
ximity	-4380
▁basis	-4381
▁cured	-4382
▁displ	-4383
▁falls	-4384
▁miner	-4385
▁space	-4386
▁stage	-4387
▁start	-4388
▁world	-4389
ibility	-4390
ofacial	-4391
oratory	-4392
▁origin	-4393
▁repeti	-4394
▁suscep	-4395
havioral	-4396
uffiness	-4397
▁assured	-4398
▁details	-4399
▁radiate	-4400
▁connects	-4401
▁dressing	-4402
▁genetics	-4403
▁internal	-4404
▁painless	-4405
▁referred	-4406
▁vomiting	-4407
▁abscesses	-4408
▁accompany	-4409
▁intermitt	-4410
▁proximity	-4411
▁idiopathic	-4412
▁preventive	-4413
▁prosthesis	-4414
▁maxillofacial	-4415
sm	-4416
pre	-4417
▁12	-4418
axis	-4419
grow	-4420
ions	-4421
▁cre	-4422
▁der	-4423
▁dom	-4424
▁sex	-4425
▁tea	-4426
night	-4427
tered	-4428
▁diss	-4429
▁easy	-4430
▁neti	-4431
▁odor	-4432
▁psor	-4433
▁ways	-4434
▁extre	-4435
▁techn	-4436
ficient	-4437
ressive	-4438
▁coping	-4439
▁mucosa	-4440
▁ranges	-4441
▁socket	-4442
▁stages	-4443
▁watery	-4444
▁altered	-4445
▁compens	-4446
▁rebuild	-4447
▁trouble	-4448
▁allergen	-4449
▁damaging	-4450
▁distinct	-4451
▁elevated	-4452
▁research	-4453
▁addressed	-4454
▁enhancing	-4455
▁psoriasis	-4456
▁laboratory	-4457
▁whispering	-4458
▁circulation	-4459
▁symptomatic	-4460
▁administering	-4461
**	-4462
ams	-4463
ark	-4464
hib	-4465
inv	-4466
aced	-4467
eper	-4468
ised	-4469
ming	-4470
uted	-4471
▁hal	-4472
▁lea	-4473
▁osa	-4474
igned	-4475
tious	-4476
▁join	-4477
▁stri	-4478
▁text	-4479
▁delay	-4480
▁emerg	-4481
▁famil	-4482
▁leads	-4483
▁stick	-4484
develop	-4485
istaxis	-4486
▁deeper	-4487
▁facing	-4488
▁images	-4489
▁number	-4490
▁recent	-4491
▁toxins	-4492
▁ventil	-4493
structed	-4494
▁aspects	-4495
▁cochlea	-4496
▁convers	-4497
▁extreme	-4498
▁placing	-4499
▁replace	-4500
▁designed	-4501
▁diseased	-4502
▁minerals	-4503
▁resolves	-4504
▁straight	-4505
▁causative	-4506
▁inability	-4507
▁indicated	-4508
▁microscop	-4509
▁selecting	-4510
▁instructed	-4511
▁protecting	-4512
▁temperature	-4513
▁developmental	-4514
-4	-4515
-10	-4516
eti	-4517
olv	-4518
reb	-4519
alsy	-4520
rosp	-4521
uard	-4522
wide	-4523
▁beg	-4524
▁emp	-4525
▁syn	-4526
sided	-4527
virus	-4528
▁away	-4529
▁bony	-4530
▁disl	-4531
▁much	-4532
▁ones	-4533
▁quit	-4534
▁term	-4535
▁again	-4536
▁cereb	-4537
▁palsy	-4538
▁prone	-4539
▁still	-4540
▁sugar	-4541
▁insert	-4542
invasive	-4543
rospinal	-4544
▁anxious	-4545
▁carries	-4546
▁clearly	-4547
▁contain	-4548
▁exposed	-4549
▁flaring	-4550
▁hormone	-4551
▁quickly	-4552
▁followed	-4553
▁involunt	-4554
▁maneuver	-4555
▁radiates	-4556
▁combining	-4557
▁correctly	-4558
▁worldwide	-4559
▁repetitive	-4560
▁stuffiness	-4561
▁microscopic	-4562
▁progressive	-4563
▁decongestant	-4564
▁intermittent	-4565
▁cerebrospinal	-4566
af	-4567
ged	-4568
hpv	-4569
mon	-4570
ool	-4571
pro	-4572
▁pa	-4573
atis	-4574
oked	-4575
rush	-4576
ties	-4577
▁gas	-4578
▁hht	-4579
▁hpv	-4580
▁vpi	-4581
▁bell	-4582
▁blow	-4583
▁desc	-4584
▁dull	-4585
▁meet	-4586
▁samp	-4587
▁wall	-4588
intest	-4589
rences	-4590
▁artic	-4591
▁human	-4592
▁lemon	-4593
▁packs	-4594
▁spine	-4595
▁touch	-4596
▁trust	-4597
▁uncer	-4598
olvable	-4599
▁chills	-4600
▁flying	-4601
▁living	-4602
▁passed	-4603
▁pulmon	-4604
▁school	-4605
▁source	-4606
▁thrush	-4607
▁chances	-4608
▁concent	-4609
▁failure	-4610
▁harmful	-4611
▁rinsing	-4612
▁yawning	-4613
ification	-4614
treatment	-4615
▁combined	-4616
▁stitches	-4617
▁systemic	-4618
▁transmit	-4619
intestinal	-4620
▁emergency	-4621
▁epistaxis	-4622
▁evaluated	-4623
▁illnesses	-4624
▁materials	-4625
▁regarding	-4626
▁uncertain	-4627
▁adjustment	-4628
▁disruptive	-4629
▁lubricated	-4630
▁papillomas	-4631
▁breathiness	-4632
▁dissolvable	-4633
▁excessively	-4634
▁administered	-4635
▁underdevelop	-4636
▁unsteadiness	-4637
▁conversations	-4638
▁papillomavirus	-4639
ae	-4640
▁8	-4641
90%	-4642
bor	-4643
ipe	-4644
ire	-4645
arer	-4646
gest	-4647
ners	-4648
ucts	-4649
▁bel	-4650
▁cut	-4651
▁eit	-4652
▁pur	-4653
aired	-4654
fying	-4655
guard	-4656
imize	-4657
orted	-4658
tible	-4659
▁7-10	-4660
▁arms	-4661
▁bite	-4662
▁born	-4663
▁deli	-4664
▁equi	-4665
▁herp	-4666
▁only	-4667
▁tear	-4668
▁wear	-4669
▁exist	-4670
▁force	-4671
▁lives	-4672
▁olive	-4673
icating	-4674
▁agents	-4675
▁bodies	-4676
▁effect	-4677
▁either	-4678
▁liquid	-4679
▁mainly	-4680
▁soften	-4681
ractions	-4682
▁comprom	-4683
▁gagging	-4684
▁gasping	-4685
▁happens	-4686
▁maximize	-4687
▁midnight	-4688
▁addresses	-4689
▁distorted	-4690
▁targeting	-4691
▁ventilate	-4692
▁behavioral	-4693
▁discharged	-4694
▁imbalances	-4695
▁alleviating	-4696
▁involuntary	-4697
▁susceptible	-4698
▁perforations	-4699
▁immunotherapy	-4700
▁reconstructing	-4701
▁underdeveloped	-4702
0-	-4703
ish	-4704
loy	-4705
rav	-4706
udy	-4707
▁ur	-4708
atus	-4709
chan	-4710
hood	-4711
inum	-4712
pipe	-4713
vous	-4714
▁def	-4715
▁pig	-4716
▁rhe	-4717
cious	-4718
ergic	-4719
ingly	-4720
quire	-4721
tical	-4722
▁adol	-4723
▁capd	-4724
▁dang	-4725
▁hour	-4726
▁insp	-4727
▁larg	-4728
▁mist	-4729
▁oper	-4730
▁spin	-4731
▁tips	-4732
energy	-4733
itosis	-4734
▁ducts	-4735
▁might	-4736
▁order	-4737
▁scars	-4738
▁stand	-4739
itating	-4740
▁accord	-4741
▁choice	-4742
▁circum	-4743
▁employ	-4744
▁itself	-4745
▁joints	-4746
▁overus	-4747
▁supply	-4748
▁vaccin	-4749
ressants	-4750
smelling	-4751
▁clearer	-4752
▁inquire	-4753
▁malform	-4754
▁nervous	-4755
▁putting	-4756
▁reduces	-4757
▁samples	-4758
▁spreads	-4759
▁harmless	-4760
▁syphilis	-4761
▁currently	-4762
▁examining	-4763
▁localized	-4764
▁producing	-4765
▁pulmonary	-4766
▁activation	-4767
▁dermatitis	-4768
▁inspection	-4769
▁interferes	-4770
▁articulation	-4771
▁implementing	-4772
▁circumstances	-4773
ned	-4774
ogn	-4775
ved	-4776
▁cy	-4777
beat	-4778
eles	-4779
requ	-4780
sequ	-4781
▁gel	-4782
dered	-4783
echan	-4784
fting	-4785
sinus	-4786
▁adap	-4787
▁cogn	-4788
▁come	-4789
▁cpap	-4790
▁posi	-4791
▁rele	-4792
▁seen	-4793
causes	-4794
iances	-4795
oceles	-4796
ologic	-4797
utions	-4798
▁diges	-4799
▁inhib	-4800
▁moder	-4801
▁study	-4802
▁until	-4803
hearing	-4804
▁aggrav	-4805
▁anomal	-4806
▁collab	-4807
▁danger	-4808
▁herpes	-4809
▁larger	-4810
▁mechan	-4811
▁specif	-4812
▁stable	-4813
▁strips	-4814
aneously	-4815
opharynx	-4816
requency	-4817
▁against	-4818
▁anosmia	-4819
▁applied	-4820
▁attacks	-4821
▁ordered	-4822
▁planned	-4823
▁rapidly	-4824
▁refrain	-4825
▁rupture	-4826
▁washing	-4827
▁grafting	-4828
▁openings	-4829
▁particip	-4830
▁periodic	-4831
▁resuming	-4832
▁spinning	-4833
▁wheezing	-4834
▁cognitive	-4835
▁digestive	-4836
▁encourage	-4837
▁halitosis	-4838
▁heartbeat	-4839
▁implanted	-4840
▁receiving	-4841
▁appliances	-4842
▁controlled	-4843
▁instrument	-4844
▁accordingly	-4845
▁nutritional	-4846
▁oncologists	-4847
▁specifically	-4848
▁communicating	-4849
▁characteristic	-4850
kn	-4851
oe	-4852
▁/	-4853
add	-4854
con	-4855
ppv	-4856
kins	-4857
look	-4858
rect	-4859
▁mix	-4860
▁rig	-4861
arent	-4862
ators	-4863
berty	-4864
inger	-4865
known	-4866
ogens	-4867
ogram	-4868
ontin	-4869
pment	-4870
▁clot	-4871
▁duct	-4872
▁eyel	-4873
▁mill	-4874
▁mind	-4875
▁name	-4876
▁pati	-4877
idence	-4878
kinson	-4879
ystagm	-4880
▁chewy	-4881
▁males	-4882
▁rigid	-4883
▁satis	-4884
chiness	-4885
▁barium	-4886
▁coming	-4887
▁delays	-4888
▁domain	-4889
▁double	-4890
▁harder	-4891
▁replac	-4892
▁secure	-4893
▁status	-4894
onscious	-4895
▁forward	-4896
▁interac	-4897
▁outlook	-4898
▁perceiv	-4899
▁puberty	-4900
▁temples	-4901
▁unknown	-4902
▁anything	-4903
▁clothing	-4904
▁employed	-4905
▁entering	-4906
▁existing	-4907
▁limiting	-4908
▁moderate	-4909
▁patience	-4910
▁receives	-4911
▁soothing	-4912
▁thinners	-4913
▁visiting	-4914
▁widening	-4915
▁described	-4916
▁displaced	-4917
▁equipment	-4918
▁injecting	-4919
▁nighttime	-4920
▁parkinson	-4921
▁recognize	-4922
▁stretches	-4923
▁treatable	-4924
▁disrupting	-4925
▁electronic	-4926
▁headphones	-4927
▁population	-4928
▁performance	-4929
▁transmitted	-4930
▁complication	-4931
▁malformations	-4932
lt	-4933
acy	-4934
ash	-4935
jor	-4936
ken	-4937
ues	-4938
▁15	-4939
aken	-4940
bone	-4941
edge	-4942
hest	-4943
ides	-4944
lies	-4945
▁bms	-4946
▁cri	-4947
▁sun	-4948
asant	-4949
itors	-4950
rical	-4951
stage	-4952
▁adop	-4953
▁exec	-4954
▁felt	-4955
▁miss	-4956
▁pump	-4957
▁push	-4958
▁seas	-4959
▁star	-4960
▁wash	-4961
umatic	-4962
▁break	-4963
▁crust	-4964
▁group	-4965
▁major	-4966
▁prefe	-4967
▁ready	-4968
▁regim	-4969
▁sides	-4970
▁sores	-4971
▁tries	-4972
▁waves	-4973
rusting	-4974
▁adding	-4975
▁broken	-4976
▁chosen	-4977
▁compon	-4978
▁defect	-4979
▁desens	-4980
▁desire	-4981
▁entail	-4982
▁failed	-4983
▁fungus	-4984
▁mental	-4985
▁opting	-4986
▁pauses	-4987
▁proton	-4988
changing	-4989
hydrated	-4990
▁highest	-4991
▁leakage	-4992
▁looking	-4993
▁massage	-4994
▁retrain	-4995
▁critical	-4996
▁eardrums	-4997
▁learning	-4998
▁mistaken	-4999
▁presents	-5000
▁routines	-5001
▁supplies	-5002
▁temporal	-5003
▁windpipe	-5004
▁anomalies	-5005
▁dangerous	-5006
▁detecting	-5007
▁discontin	-5008
▁precisely	-5009
▁remaining	-5010
▁inhibitors	-5011
▁positional	-5012
▁emotionally	-5013
▁nasopharynx	-5014
▁precancerous	-5015
▁preparations	-5016
▁concentrating	-5017
▁neurosurgeons	-5018
rp	-5019
to	-5020
day	-5021
hht	-5022
aded	-5023
audi	-5024
kele	-5025
lves	-5026
oses	-5027
romy	-5028
unct	-5029
uple	-5030
uppp	-5031
▁2-4	-5032
▁bat	-5033
▁col	-5034
ately	-5035
borns	-5036
cloth	-5037
gemin	-5038
odged	-5039
ontic	-5040
plets	-5041
uxism	-5042
▁conj	-5043
▁lips	-5044
▁mach	-5045
▁palp	-5046
▁subs	-5047
ending	-5048
eptors	-5049
formed	-5050
niated	-5051
osomal	-5052
▁adapt	-5053
▁bever	-5054
▁dimin	-5055
▁fixed	-5056
▁floor	-5057
▁flows	-5058
▁genes	-5059
▁rough	-5060
▁spont	-5061
▁toler	-5062
▁usage	-5063
forward	-5064
geminal	-5065
▁acidic	-5066
▁bloody	-5067
▁canals	-5068
▁couple	-5069
▁masses	-5070
▁organs	-5071
▁orthod	-5072
▁rarely	-5073
allergic	-5074
informed	-5075
▁crooked	-5076
▁delayed	-5077
▁electro	-5078
▁mindful	-5079
▁remains	-5080
▁stimuli	-5081
▁sucking	-5082
▁suction	-5083
▁varying	-5084
▁waiting	-5085
▁adopting	-5086
▁apparent	-5087
▁collabor	-5088
▁continue	-5089
▁droplets	-5090
▁executed	-5091
▁families	-5092
▁narrowed	-5093
▁newborns	-5094
▁reaching	-5095
▁received	-5096
▁skincare	-5097
▁suddenly	-5098
▁herniated	-5099
▁overusing	-5100
▁pathogens	-5101
▁receptors	-5102
▁shoulders	-5103
▁washcloth	-5104
▁aggressive	-5105
▁continuous	-5106
▁disruption	-5107
▁granulomas	-5108
▁mouthguard	-5109
▁protective	-5110
▁responding	-5111
▁scratching	-5112
▁sleepiness	-5113
▁sufficient	-5114
▁thoroughly	-5115
▁trigeminal	-5116
▁conjunction	-5117
▁flexibility	-5118
▁incorporate	-5119
▁orthodontic	-5120
▁accompanying	-5121
▁audiological	-5122
▁contractions	-5123
▁pigmentation	-5124
▁successfully	-5125
▁visualization	-5126
▁straightforward	-5127
eg	-5128
si	-5129
aff	-5130
aha	-5131
bul	-5132
mic	-5133
tle	-5134
uch	-5135
▁30	-5136
▁fr	-5137
capd	-5138
omog	-5139
ords	-5140
oxid	-5141
oxys	-5142
rict	-5143
umes	-5144
▁act	-5145
▁deg	-5146
▁mim	-5147
amine	-5148
entis	-5149
etite	-5150
iable	-5151
ights	-5152
illow	-5153
itted	-5154
ivery	-5155
▁irre	-5156
▁node	-5157
▁pier	-5158
▁prem	-5159
▁simp	-5160
▁surf	-5161
▁teac	-5162
▁vide	-5163
▁view	-5164
encies	-5165
growth	-5166
lihood	-5167
selves	-5168
ulates	-5169
▁defin	-5170
▁homog	-5171
▁lying	-5172
▁point	-5173
▁reass	-5174
▁staff	-5175
▁toxin	-5176
centage	-5177
keletal	-5178
looking	-5179
ometric	-5180
oxysmal	-5181
theaded	-5182
▁begins	-5183
▁ginger	-5184
▁likely	-5185
▁manual	-5186
▁motion	-5187
▁pillow	-5188
▁radiof	-5189
▁speedy	-5190
▁stabil	-5191
▁sticky	-5192
oxidants	-5193
▁diminis	-5194
▁entails	-5195
▁extract	-5196
▁partial	-5197
▁partner	-5198
▁pattern	-5199
▁texture	-5200
conscious	-5201
▁appetite	-5202
▁attached	-5203
▁delivery	-5204
▁heighten	-5205
▁mutation	-5206
▁piercing	-5207
▁settings	-5208
▁aggravate	-5209
▁audiogram	-5210
▁autosomal	-5211
▁beverages	-5212
▁education	-5213
▁electromy	-5214
▁mucoceles	-5215
▁particles	-5216
▁processes	-5217
▁sclerosis	-5218
▁compensate	-5219
▁discussion	-5220
▁homogentis	-5221
▁indicative	-5222
▁infectious	-5223
▁initiating	-5224
▁likelihood	-5225
▁noticeable	-5226
▁overgrowth	-5227
▁paroxysmal	-5228
▁percentage	-5229
▁themselves	-5230
▁lightheaded	-5231
▁preferences	-5232
▁restriction	-5233
▁antioxidants	-5234
▁interactions	-5235
▁localization	-5236
▁radiofrequency	-5237
)?	-5238
-3	-5239
cd	-5240
ct	-5241
ems	-5242
oct	-5243
som	-5244
str	-5245
barr	-5246
conf	-5247
erve	-5248
lete	-5249
orrh	-5250
rick	-5251
rine	-5252
ulas	-5253
▁bri	-5254
▁hiv	-5255
▁ign	-5256
▁let	-5257
ences	-5258
micir	-5259
osupp	-5260
rains	-5261
stein	-5262
urnal	-5263
words	-5264
▁baha	-5265
▁cham	-5266
▁pull	-5267
▁ting	-5268
▁valu	-5269
▁vein	-5270
assion	-5271
ingers	-5272
orable	-5273
thetic	-5274
ulinum	-5275
▁black	-5276
▁bleed	-5277
▁calci	-5278
▁estim	-5279
▁frust	-5280
▁habit	-5281
▁items	-5282
▁leaks	-5283
▁pleur	-5284
▁unple	-5285
▁urine	-5286
▁whole	-5287
▁asking	-5288
▁drying	-5289
▁energy	-5290
▁excise	-5291
▁grains	-5292
▁happen	-5293
▁orally	-5294
▁scents	-5295
▁connect	-5296
▁consequ	-5297
▁counsel	-5298
▁deliver	-5299
▁earache	-5300
▁epstein	-5301
▁explain	-5302
▁inflame	-5303
▁intense	-5304
▁jawbone	-5305
▁realign	-5306
▁rebound	-5307
▁semicir	-5308
▁substit	-5309
▁suggest	-5310
▁trapped	-5311
▁vibrate	-5312
▁walking	-5313
assionate	-5314
▁changing	-5315
▁checking	-5316
▁impaired	-5317
▁millions	-5318
▁organism	-5319
▁promotes	-5320
▁reversed	-5321
▁watchful	-5322
confidence	-5323
▁botulinum	-5324
▁completed	-5325
▁elevating	-5326
▁histamine	-5327
▁influenza	-5328
▁physician	-5329
▁replacing	-5330
▁rheumatic	-5331
▁synthetic	-5332
▁utilizing	-5333
▁completing	-5334
▁connection	-5335
▁definitive	-5336
▁diminished	-5337
▁heightened	-5338
▁identified	-5339
▁immunosupp	-5340
▁properties	-5341
▁reversible	-5342
▁unpleasant	-5343
▁vibrations	-5344
▁application	-5345
▁compromised	-5346
▁consistency	-5347
▁differently	-5348
▁involvement	-5349
▁possibility	-5350
▁confirmation	-5351
▁consequences	-5352
▁laryngoscope	-5353
▁semicircular	-5354
▁compassionate	-5355
au	-5356
dom	-5357
key	-5358
nov	-5359
oot	-5360
our	-5361
raw	-5362
▁**	-5363
▁bi	-5364
emia	-5365
equi	-5366
onic	-5367
pret	-5368
sens	-5369
uctu	-5370
▁fav	-5371
▁pay	-5372
▁rib	-5373
vices	-5374
▁adhe	-5375
▁beam	-5376
▁calm	-5377
▁clim	-5378
▁drum	-5379
▁gels	-5380
▁gets	-5381
▁gums	-5382
▁lean	-5383
▁mark	-5384
▁noct	-5385
▁pack	-5386
▁worn	-5387
ooting	-5388
▁abuse	-5389
▁alone	-5390
▁beams	-5391
▁crack	-5392
▁innov	-5393
▁integ	-5394
▁manip	-5395
▁meals	-5396
▁means	-5397
▁preca	-5398
▁shots	-5399
▁three	-5400
▁would	-5401
faction	-5402
ighting	-5403
lements	-5404
▁accoun	-5405
▁cauter	-5406
▁fluctu	-5407
▁louder	-5408
▁mouthw	-5409
▁slowly	-5410
▁spinal	-5411
▁varied	-5412
equipped	-5413
keywords	-5414
▁advance	-5415
▁calcium	-5416
▁markers	-5417
▁observe	-5418
▁portion	-5419
▁simplex	-5420
▁sustain	-5421
abilities	-5422
▁adjusted	-5423
▁bypasses	-5424
▁clotting	-5425
▁disrupts	-5426
▁enhances	-5427
▁everyday	-5428
▁hematoma	-5429
▁immunity	-5430
▁offering	-5431
▁pressing	-5432
▁prevents	-5433
▁programs	-5434
▁restored	-5435
▁shooting	-5436
▁tingling	-5437
▁trapping	-5438
audiometry	-5439
▁candidacy	-5440
▁certainly	-5441
▁connected	-5442
▁extremely	-5443
▁favorable	-5444
▁naturally	-5445
▁nocturnal	-5446
▁perceived	-5447
▁readiness	-5448
▁showering	-5449
▁vestibule	-5450
▁accumulate	-5451
▁adolescent	-5452
▁containing	-5453
▁deficiency	-5454
▁discontinu	-5455
▁equalizing	-5456
▁innovative	-5457
▁microscope	-5458
▁misaligned	-5459
▁originates	-5460
▁technology	-5461
▁precautions	-5462
▁programming	-5463
ystagmography	-5464
▁audiologists	-5465
▁homogentisic	-5466
▁malformation	-5467
-6	-5468
bt	-5469
hr	-5470
-19	-5471
bil	-5472
ics	-5473
lsi	-5474
mri	-5475
val	-5476
way	-5477
aphr	-5478
born	-5479
fice	-5480
ield	-5481
ings	-5482
iter	-5483
itiz	-5484
lear	-5485
ptus	-5486
ross	-5487
▁euc	-5488
▁fil	-5489
▁hay	-5490
▁lat	-5491
▁old	-5492
▁uns	-5493
baric	-5494
inant	-5495
infec	-5496
plane	-5497
press	-5498
stals	-5499
▁dark	-5500
▁date	-5501
▁fain	-5502
▁just	-5503
▁oint	-5504
▁pure	-5505
▁styl	-5506
▁susp	-5507
▁trap	-5508
ources	-5509
▁above	-5510
▁agent	-5511
▁analy	-5512
▁antic	-5513
▁belie	-5514
▁biops	-5515
▁cardi	-5516
▁covid	-5517
▁effic	-5518
▁fails	-5519
▁ideal	-5520
▁intra	-5521
▁knowl	-5522
▁mimic	-5523
▁occup	-5524
▁prick	-5525
▁separ	-5526
▁stoma	-5527
▁stret	-5528
▁swell	-5529
▁tired	-5530
▁works	-5531
alyptus	-5532
aphragm	-5533
ologies	-5534
uncture	-5535
▁across	-5536
▁aiding	-5537
▁anyone	-5538
▁blocks	-5539
▁crusts	-5540
▁differ	-5541
▁expand	-5542
▁eyelid	-5543
▁fights	-5544
▁filter	-5545
▁humidi	-5546
▁locate	-5547
▁lodged	-5548
▁overly	-5549
▁rather	-5550
▁repeat	-5551
▁simult	-5552
▁strict	-5553
▁unlike	-5554
▁widely	-5555
pressure	-5556
▁bathing	-5557
▁candies	-5558
▁capable	-5559
▁checked	-5560
▁flowing	-5561
▁focused	-5562
▁gargles	-5563
▁joining	-5564
▁regimen	-5565
▁sensory	-5566
mmetrical	-5567
▁accident	-5568
▁altering	-5569
▁crystals	-5570
▁fighting	-5571
▁findings	-5572
▁inflated	-5573
▁interrup	-5574
▁loudness	-5575
▁produced	-5576
▁smoother	-5577
▁suppress	-5578
▁touching	-5579
▁valuable	-5580
▁committed	-5581
▁diaphragm	-5582
▁enjoyment	-5583
▁healthier	-5584
▁hypersens	-5585
▁incorrect	-5586
▁instances	-5587
▁interpret	-5588
▁irritates	-5589
▁knowledge	-5590
▁mouthwash	-5591
▁posterior	-5592
▁resources	-5593
▁vibration	-5594
hearingloss	-5595
▁assistance	-5596
▁collection	-5597
▁consistent	-5598
▁customized	-5599
▁decreasing	-5600
▁eucalyptus	-5601
▁hyperbaric	-5602
▁strictures	-5603
▁supporting	-5604
▁thickening	-5605
▁cryotherapy	-5606
▁interfering	-5607
▁malfunction	-5608
▁mindfulness	-5609
▁stimulation	-5610
▁neurosurgeon	-5611
▁satisfaction	-5612
▁cauterization	-5613
▁comprehension	-5614
▁strengthening	-5615
▁simultaneously	-5616
/,	-5617
0.	-5618
ds	-5619
va	-5620
abr	-5621
alk	-5622
bud	-5623
dep	-5624
eng	-5625
hap	-5626
ift	-5627
rrp	-5628
ulp	-5629
uls	-5630
urt	-5631
vpi	-5632
▁),	-5633
▁pi	-5634
▁sj	-5635
aces	-5636
bppv	-5637
buds	-5638
eria	-5639
ined	-5640
lvas	-5641
oeae	-5642
room	-5643
stre	-5644
▁ann	-5645
▁bac	-5646
▁mag	-5647
0-90%	-5648
atial	-5649
nants	-5650
orter	-5651
osits	-5652
▁band	-5653
▁dose	-5654
▁isol	-5655
▁live	-5656
▁scal	-5657
▁seal	-5658
▁talk	-5659
hering	-5660
ifiers	-5661
inguis	-5662
ranial	-5663
vision	-5664
▁arter	-5665
▁below	-5666
▁brief	-5667
▁catch	-5668
▁debil	-5669
▁discs	-5670
▁elong	-5671
▁enter	-5672
▁final	-5673
▁great	-5674
▁irreg	-5675
▁lacer	-5676
▁neiss	-5677
▁parti	-5678
▁patch	-5679
▁renal	-5680
▁resid	-5681
▁tried	-5682
▁ultim	-5683
▁women	-5684
▁worse	-5685
▁absent	-5686
▁aching	-5687
▁caring	-5688
▁dislod	-5689
▁expert	-5690
▁latest	-5691
▁poorly	-5692
▁retina	-5693
▁select	-5694
▁viable	-5695
orrhoeae	-5696
syndrome	-5697
▁bedroom	-5698
▁bulging	-5699
▁driving	-5700
▁earbuds	-5701
▁hydrate	-5702
▁inserts	-5703
▁lighted	-5704
▁shorter	-5705
▁spatial	-5706
▁targets	-5707
▁unclear	-5708
endoscope	-5709
ientation	-5710
iological	-5711
▁adhering	-5712
▁biologic	-5713
▁biopsies	-5714
▁deposits	-5715
▁frenulum	-5716
▁normally	-5717
▁pathways	-5718
▁provides	-5719
▁remnants	-5720
▁smoothly	-5721
▁standing	-5722
▁swimmers	-5723
▁utilizes	-5724
▁visually	-5725
▁afterward	-5726
▁alongside	-5727
▁concerned	-5728
▁crackling	-5729
▁estimated	-5730
▁indicates	-5731
▁itchiness	-5732
▁lemierres	-5733
▁neisseria	-5734
▁ointments	-5735
▁operating	-5736
▁premature	-5737
▁responses	-5738
▁reviewing	-5739
▁transform	-5740
▁undergoes	-5741
▁candidates	-5742
▁distinguis	-5743
▁forcefully	-5744
▁incomplete	-5745
▁ultimately	-5746
▁alterations	-5747
▁gonorrhoeae	-5748
▁lacerations	-5749
▁limitations	-5750
▁moisturized	-5751
▁necessarily	-5752
▁supervision	-5753
▁temporarily	-5754
▁capabilities	-5755
▁debilitating	-5756
▁equalization	-5757
▁fluctuations	-5758
▁occupational	-5759
▁vaccinations	-5760
▁discontinuing	-5761
▁participating	-5762
5%	-5763
gl	-5764
yn	-5765
▁{	-5766
ann	-5767
ede	-5768
emg	-5769
isy	-5770
med	-5771
opy	-5772
tig	-5773
ump	-5774
▁fi	-5775
aids	-5776
arsh	-5777
asks	-5778
blic	-5779
burn	-5780
cape	-5781
cpap	-5782
cter	-5783
down	-5784
draw	-5785
duce	-5786
ella	-5787
gone	-5788
oser	-5789
pers	-5790
prep	-5791
rest	-5792
rive	-5793
such	-5794
thal	-5795
till	-5796
▁bab	-5797
▁cyc	-5798
▁fib	-5799
▁fit	-5800
▁mas	-5801
▁pen	-5802
▁sed	-5803
▁vcd	-5804
▁vig	-5805
▁won	-5806
asses	-5807
esity	-5808
occur	-5809
omile	-5810
opath	-5811
▁ache	-5812
▁ampl	-5813
▁culp	-5814
▁cuts	-5815
▁fine	-5816
▁gend	-5817
▁goes	-5818
▁iron	-5819
▁liga	-5820
▁past	-5821
▁piec	-5822
▁stem	-5823
▁turn	-5824
▁wart	-5825
▁zinc	-5826
00,000	-5827
drawal	-5828
ensity	-5829
mpting	-5830
nausea	-5831
ockets	-5832
opathy	-5833
ophony	-5834
stance	-5835
tivity	-5836
venous	-5837
▁acids	-5838
▁begin	-5839
▁burns	-5840
▁degen	-5841
▁diure	-5842
▁fears	-5843
▁feels	-5844
▁fewer	-5845
▁fiber	-5846
▁folds	-5847
▁harsh	-5848
▁haven	-5849
▁hydro	-5850
▁intub	-5851
▁least	-5852
▁proce	-5853
▁prote	-5854
▁retur	-5855
▁sphin	-5856
▁spots	-5857
▁stays	-5858
▁tasks	-5859
▁video	-5860
acement	-5861
bruxism	-5862
duction	-5863
ontroll	-5864
tenance	-5865
tonsill	-5866
ulating	-5867
ulatory	-5868
vention	-5869
▁anemia	-5870
▁broths	-5871
▁builds	-5872
▁clinic	-5873
▁closer	-5874
▁deeply	-5875
▁degree	-5876
▁disloc	-5877
▁effort	-5878
▁escape	-5879
▁goiter	-5880
▁groove	-5881
▁guides	-5882
▁handle	-5883
▁impede	-5884
▁intell	-5885
▁public	-5886
▁recess	-5887
▁screen	-5888
▁seeing	-5889
▁shower	-5890
▁slight	-5891
▁spaces	-5892
▁suspic	-5893
▁unable	-5894
acoustic	-5895
prepared	-5896
▁adjusts	-5897
▁analyze	-5898
▁atrophy	-5899
▁barking	-5900
▁candida	-5901
▁cardiov	-5902
▁careful	-5903
▁creates	-5904
▁culprit	-5905
▁cutting	-5906
▁growing	-5907
▁helpful	-5908
▁needing	-5909
▁numbing	-5910
▁obesity	-5911
▁operate	-5912
▁outside	-5913
▁palpate	-5914
▁passing	-5915
▁pinched	-5916
▁profile	-5917
▁release	-5918
▁retinal	-5919
▁styloid	-5920
▁warning	-5921
▁airplane	-5922
▁covering	-5923
▁detected	-5924
▁drooping	-5925
▁eardrops	-5926
▁maternal	-5927
▁perceive	-5928
▁residual	-5929
▁seasonal	-5930
▁teaching	-5931
▁textures	-5932
▁avoidance	-5933
▁chamomile	-5934
▁clearance	-5935
▁confirmed	-5936
▁confusion	-5937
▁consuming	-5938
▁corrected	-5939
▁digestion	-5940
▁diuretics	-5941
▁histopath	-5942
▁irregular	-5943
▁purifiers	-5944
▁schedules	-5945
▁scratches	-5946
▁selection	-5947
▁sphincter	-5948
▁stability	-5949
▁substance	-5950
▁undergone	-5951
▁abnormally	-5952
▁accounting	-5953
▁components	-5954
▁confirming	-5955
▁connecting	-5956
▁dedication	-5957
▁entrusting	-5958
▁implanting	-5959
▁intubation	-5960
▁uncontroll	-5961
▁withdrawal	-5962
▁eliminating	-5963
▁frequencies	-5964
▁inheritance	-5965
▁intravenous	-5966
▁maintenance	-5967
▁orientation	-5968
▁participate	-5969
▁positioning	-5970
▁progressing	-5971
▁replacement	-5972
▁supplements	-5973
▁bronchoscopy	-5974
▁displacement	-5975
▁moisturizing	-5976
▁suppressants	-5977
▁technologies	-5978
▁interruptions	-5979
▁sclerotherapy	-5980
▁cardiovascular	-5981
▁distinguishing	-5982
▁transformation	-5983
▁transformative	-5984
▁lightheadedness	-5985
cr	-5986
ng	-5987
nh	-5988
uv	-5989
ads	-5990
eze	-5991
iet	-5992
ils	-5993
ker	-5994
ley	-5995
nat	-5996
opd	-5997
ork	-5998
wel	-5999
▁0.	-6000
ards	-6001
bace	-6002
back	-6003
isms	-6004
ists	-6005
neys	-6006
olic	-6007
ores	-6008
psis	-6009
risk	-6010
step	-6011
uish	-6012
ulos	-6013
work	-6014
yond	-6015
▁90%	-6016
▁bit	-6017
▁cys	-6018
▁mar	-6019
▁neg	-6020
▁oph	-6021
▁oto	-6022
▁rul	-6023
0,000	-6024
edius	-6025
erved	-6026
eting	-6027
izers	-6028
natal	-6029
ogren	-6030
olars	-6031
romas	-6032
sides	-6033
thalm	-6034
urred	-6035
uvant	-6036
▁acup	-6037
▁anal	-6038
▁atte	-6039
▁bppv	-6040
▁cool	-6041
▁drug	-6042
▁ever	-6043
▁fear	-6044
▁fess	-6045
▁frag	-6046
▁moun	-6047
▁oils	-6048
▁phot	-6049
▁roof	-6050
ductor	-6051
erated	-6052
ferred	-6053
gastro	-6054
gested	-6055
iently	-6056
mptoms	-6057
tympan	-6058
verbal	-6059
▁adopt	-6060
▁broth	-6061
▁carry	-6062
▁cloth	-6063
▁count	-6064
▁embry	-6065
▁epley	-6066
▁event	-6067
▁extra	-6068
▁faint	-6069
▁fatal	-6070
▁fatty	-6071
▁grows	-6072
▁liver	-6073
▁meets	-6074
▁piece	-6075
▁quiet	-6076
▁scalp	-6077
▁stiff	-6078
▁survi	-6079
▁sweat	-6080
▁terms	-6081
achment	-6082
agnosis	-6083
baceous	-6084
boscopy	-6085
indness	-6086
issions	-6087
yndrome	-6088
▁actual	-6089
▁adoles	-6090
▁arthro	-6091
▁asleep	-6092
▁attack	-6093
▁beyond	-6094
▁biting	-6095
▁coughs	-6096
▁cystic	-6097
▁factor	-6098
▁fusion	-6099
▁gender	-6100
▁infect	-6101
▁integr	-6102
▁intrac	-6103
▁manner	-6104
▁modify	-6105
▁office	-6106
▁reason	-6107
▁ruling	-6108
▁sepsis	-6109
▁shared	-6110
▁starts	-6111
▁suffer	-6112
▁things	-6113
mination	-6114
symptoms	-6115
▁100,000	-6116
▁anesthe	-6117
▁bending	-6118
▁collect	-6119
▁colored	-6120
▁density	-6121
▁instill	-6122
▁kidneys	-6123
▁leaking	-6124
▁missing	-6125
▁pulling	-6126
▁reoccur	-6127
▁section	-6128
▁sharing	-6129
▁sjogren	-6130
▁subside	-6131
diagnosis	-6132
itization	-6133
▁actively	-6134
▁adjuvant	-6135
▁annually	-6136
▁bringing	-6137
▁climates	-6138
▁consists	-6139
▁delivers	-6140
▁dominant	-6141
▁everyone	-6142
▁exposing	-6143
▁fistulas	-6144
▁granulom	-6145
▁machines	-6146
▁migraine	-6147
▁mountain	-6148
▁musculos	-6149
▁pleurisy	-6150
▁prenatal	-6151
▁proteins	-6152
▁referral	-6153
▁regulate	-6154
▁repaired	-6155
▁securing	-6156
▁services	-6157
▁subsides	-6158
▁thinning	-6159
▁trusting	-6160
adenopathy	-6161
▁component	-6162
▁disrupted	-6163
▁earphones	-6164
▁efficient	-6165
▁elongated	-6166
▁emissions	-6167
▁endurance	-6168
▁isolation	-6169
▁manometry	-6170
▁massaging	-6171
▁partially	-6172
▁piercings	-6173
▁recessive	-6174
▁returning	-6175
▁sebaceous	-6176
▁shrinking	-6177
▁stabilize	-6178
▁stapedius	-6179
▁toothache	-6180
▁connective	-6181
▁mistakenly	-6182
▁occurrence	-6183
▁persisting	-6184
▁stimulates	-6185
▁straighten	-6186
▁stretching	-6187
▁substitute	-6188
▁suspicious	-6189
▁accumulates	-6190
▁acupuncture	-6191
▁audiometric	-6192
▁desensitize	-6193
▁exacerbated	-6194
▁frustrating	-6195
▁otoacoustic	-6196
▁polypectomy	-6197
▁reassurance	-6198
▁spontaneous	-6199
▁asymmetrical	-6200
▁intracranial	-6201
▁moisturizers	-6202
▁occasionally	-6203
▁periodically	-6204
▁scratchiness	-6205
▁temperatures	-6206
▁amplification	-6207
▁necessitating	-6208
▁spontaneously	-6209
▁hypersensitive	-6210
gastroesophageal	-6211
▁desensitization	-6212
▁lymphadenopathy	-6213
▁musculoskeletal	-6214
ex	-6215
ez	-6216
gi	-6217
sa	-6218
sl	-6219
zy	-6220
▁"	-6221
abl	-6222
aky	-6223
anx	-6224
arr	-6225
cbt	-6226
ded	-6227
flu	-6228
iar	-6229
off	-6230
ppy	-6231
whe	-6232
▁1,	-6233
▁je	-6234
acea	-6235
acts	-6236
alva	-6237
auze	-6238
ayer	-6239
ened	-6240
eros	-6241
fess	-6242
gled	-6243
pres	-6244
redi	-6245
resp	-6246
ucle	-6247
umat	-6248
▁bag	-6249
▁haz	-6250
▁ing	-6251
▁pla	-6252
▁rhy	-6253
▁ros	-6254
▁rub	-6255
▁urg	-6256
acids	-6257
cents	-6258
chron	-6259
edite	-6260
estig	-6261
etiti	-6262
hapen	-6263
happy	-6264
icine	-6265
ience	-6266
ilant	-6267
optic	-6268
osion	-6269
oxide	-6270
proof	-6271
rings	-6272
rowth	-6273
satis	-6274
swimm	-6275
thmic	-6276
tomia	-6277
▁10-1	-6278
▁aied	-6279
▁aloe	-6280
▁baby	-6281
▁blue	-6282
▁calc	-6283
▁dead	-6284
▁feas	-6285
▁fill	-6286
▁hind	-6287
▁link	-6288
▁lost	-6289
▁magn	-6290
▁mask	-6291
▁note	-6292
▁nurt	-6293
▁pose	-6294
▁psom	-6295
▁seem	-6296
▁sque	-6297
▁ster	-6298
▁subj	-6299
▁vacc	-6300
▁vals	-6301
▁vari	-6302
▁vera	-6303
▁yawn	-6304
arrass	-6305
edback	-6306
establ	-6307
gesics	-6308
olored	-6309
onious	-6310
phrine	-6311
rectly	-6312
ribing	-6313
rowded	-6314
saving	-6315
stream	-6316
▁clots	-6317
▁excis	-6318
▁exost	-6319
▁field	-6320
▁gauze	-6321
▁layer	-6322
▁metab	-6323
▁optic	-6324
▁protr	-6325
▁quali	-6326
▁resil	-6327
▁state	-6328
▁stran	-6329
▁usual	-6330
▁worth	-6331
▁xeros	-6332
anxiety	-6333
mastoid	-6334
ndromes	-6335
umatoid	-6336
uralgia	-6337
▁80-90%	-6338
▁angiog	-6339
▁bitter	-6340
▁bluish	-6341
▁breast	-6342
▁caregi	-6343
▁chance	-6344
▁clears	-6345
▁creams	-6346
▁cycles	-6347
▁discri	-6348
▁embrac	-6349
▁filled	-6350
▁freely	-6351
▁furrow	-6352
▁healed	-6353
▁insect	-6354
▁intric	-6355
▁pharyn	-6356
▁rashes	-6357
▁spores	-6358
▁waking	-6359
▁workpl	-6360
redients	-6361
▁antidep	-6362
▁appears	-6363
▁aspirin	-6364
▁avoided	-6365
▁bruxism	-6366
▁daycare	-6367
▁dietiti	-6368
▁educate	-6369
▁erosion	-6370
▁eyelids	-6371
▁falling	-6372
▁flights	-6373
▁flosser	-6374
▁forming	-6375
▁happier	-6376
▁harmony	-6377
▁hazards	-6378
▁humming	-6379
▁ignored	-6380
▁insects	-6381
▁instead	-6382
▁knowing	-6383
▁meeting	-6384
▁outgrow	-6385
▁pathway	-6386
▁pushing	-6387
▁regions	-6388
▁restful	-6389
▁reviews	-6390
▁rosacea	-6391
▁schwann	-6392
▁seasons	-6393
▁singers	-6394
▁sources	-6395
▁spondyl	-6396
▁squeeze	-6397
▁thought	-6398
▁tighten	-6399
▁unhappy	-6400
▁upright	-6401
▁volumes	-6402
mptomatic	-6403
▁antacids	-6404
▁assesses	-6405
▁constric	-6406
▁culprits	-6407
▁dislodge	-6408
▁earaches	-6409
▁earrings	-6410
▁electron	-6411
▁expedite	-6412
▁familiar	-6413
▁feasible	-6414
▁investig	-6415
▁medicine	-6416
▁ophthalm	-6417
▁periodon	-6418
▁pleasing	-6419
▁regrowth	-6420
▁relieved	-6421
▁reported	-6422
▁reserved	-6423
▁rhythmic	-6424
▁sedation	-6425
▁skeletal	-6426
▁standard	-6427
▁survival	-6428
▁valsalva	-6429
▁vigilant	-6430
▁warrants	-6431
ialization	-6432
infectious	-6433
▁adherence	-6434
▁blindness	-6435
▁breakdown	-6436
▁continues	-6437
▁counselor	-6438
▁embarrass	-6439
▁embryonic	-6440
▁fractured	-6441
▁increases	-6442
▁maneuvers	-6443
▁mechanism	-6444
▁misshapen	-6445
▁modifying	-6446
▁neuralgia	-6447
▁nurturing	-6448
▁originate	-6449
▁preferred	-6450
▁processed	-6451
▁retention	-6452
▁softening	-6453
▁solutions	-6454
▁specifics	-6455
▁strangled	-6456
▁sustained	-6457
▁tolerance	-6458
▁weakening	-6459
▁analgesics	-6460
▁audiograms	-6461
▁barometric	-6462
▁collecting	-6463
▁compromise	-6464
▁counselors	-6465
▁discolored	-6466
▁evaluating	-6467
▁fiberoptic	-6468
▁harmonious	-6469
▁indirectly	-6470
▁influences	-6471
▁instilling	-6472
▁mechanisms	-6473
▁obstructed	-6474
▁oncologist	-6475
▁pharyngeus	-6476
▁regardless	-6477
▁regulation	-6478
▁resilience	-6479
▁rheumatoid	-6480
▁subjective	-6481
▁xerostomia	-6482
tympanostomy	-6483
▁abnormality	-6484
▁adolescents	-6485
▁bloodstream	-6486
▁circulatory	-6487
▁contraction	-6488
▁dislocation	-6489
▁efficiently	-6490
▁humidifying	-6491
▁ingredients	-6492
▁prescribing	-6493
▁spondylosis	-6494
▁uncertainty	-6495
▁vaccination	-6496
▁asymptomatic	-6497
▁exacerbating	-6498
▁exacerbation	-6499
▁implications	-6500
▁incorporated	-6501
▁pathologists	-6502
▁pediatrician	-6503
▁productivity	-6504
▁uncontrolled	-6505
▁collaborating	-6506
▁encouragement	-6507
▁functionality	-6508
▁discrimination	-6509
▁humidification	-6510
▁qualifications	-6511
▁antidepressants	-6512
26	-6513
bb	-6514
sd	-6515
sh	-6516
}.	-6517
0-6	-6518
arv	-6519
att	-6520
bon	-6521
cri	-6522
emr	-6523
hyl	-6524
ipl	-6525
ixt	-6526
jna	-6527
jug	-6528
lim	-6529
oae	-6530
oar	-6531
shl	-6532
tol	-6533
uar	-6534
vng	-6535
▁1%	-6536
▁20	-6537
▁ja	-6538
▁tv	-6539
▁ut	-6540
▁ye	-6541
-19,	-6542
agus	-6543
aied	-6544
alur	-6545
ante	-6546
ator	-6547
auti	-6548
cell	-6549
copd	-6550
erms	-6551
esis	-6552
ezes	-6553
fill	-6554
hall	-6555
high	-6556
icor	-6557
ilet	-6558
mint	-6559
more	-6560
onom	-6561
oppy	-6562
ovir	-6563
pike	-6564
rees	-6565
rium	-6566
rown	-6567
tone	-6568
ught	-6569
ugin	-6570
upus	-6571
utum	-6572
yles	-6573
▁abh	-6574
▁crs	-6575
▁dix	-6576
▁eom	-6577
▁erg	-6578
▁eva	-6579
▁fin	-6580
▁por	-6581
▁slc	-6582
▁tie	-6583
▁til	-6584
▁unn	-6585
amsay	-6586
angio	-6587
borne	-6588
compl	-6589
enter	-6590
idden	-6591
illin	-6592
intro	-6593
ising	-6594
ition	-6595
lined	-6596
races	-6597
rosis	-6598
uding	-6599
ushed	-6600
voice	-6601
welry	-6602
▁amin	-6603
▁ansd	-6604
▁awak	-6605
▁bubb	-6606
▁cred	-6607
▁defl	-6608
▁earm	-6609
▁enzy	-6610
▁four	-6611
▁fuss	-6612
▁gear	-6613
▁guar	-6614
▁hall	-6615
▁halt	-6616
▁harv	-6617
▁hunt	-6618
▁jaws	-6619
▁lies	-6620
▁male	-6621
▁mixt	-6622
▁otoc	-6623
▁ribs	-6624
▁scds	-6625
▁sick	-6626
▁sing	-6627
▁stub	-6628
▁swim	-6629
▁tied	-6630
▁unit	-6631
▁upon	-6632
▁urge	-6633
▁uris	-6634
anosis	-6635
ensils	-6636
esting	-6637
ficits	-6638
ground	-6639
initis	-6640
iplash	-6641
laryng	-6642
larynx	-6643
levant	-6644
narrow	-6645
oliths	-6646
onsive	-6647
osures	-6648
person	-6649
tinged	-6650
trache	-6651
undice	-6652
zoster	-6653
▁bring	-6654
▁brown	-6655
▁chips	-6656
▁chrom	-6657
▁cream	-6658
▁decay	-6659
▁disor	-6660
▁doing	-6661
▁donor	-6662
▁epine	-6663
▁fluor	-6664
▁fumes	-6665
▁germs	-6666
▁heard	-6667
▁immob	-6668
▁isshl	-6669
▁leave	-6670
▁licor	-6671
▁lupus	-6672
▁mixed	-6673
▁moves	-6674
▁penet	-6675
▁pouch	-6676
▁share	-6677
▁since	-6678
▁solid	-6679
▁strea	-6680
▁think	-6681
▁unint	-6682
▁warts	-6683
▁wrest	-6684
▁yeast	-6685
antages	-6686
ationsh	-6687
cations	-6688
entials	-6689
factory	-6690
feeding	-6691
filling	-6692
ophagia	-6693
portion	-6694
prescri	-6695
ributed	-6696
sequent	-6697
uginosa	-6698
▁adhere	-6699
▁advise	-6700
▁arches	-6701
▁beauti	-6702
▁bottle	-6703
▁braces	-6704
▁carbon	-6705
▁clefts	-6706
▁encomp	-6707
▁establ	-6708
▁excell	-6709
▁expose	-6710
▁fixing	-6711
▁floppy	-6712
▁giving	-6713
▁guided	-6714
▁harden	-6715
▁hyalur	-6716
▁infant	-6717
▁mixing	-6718
▁mobile	-6719
▁online	-6720
▁paraly	-6721
▁pepper	-6722
▁places	-6723
▁pleura	-6724
▁ramsay	-6725
▁relate	-6726
▁septic	-6727
▁signal	-6728
▁softer	-6729
▁stents	-6730
▁stream	-6731
▁tastes	-6732
▁toilet	-6733
▁turbul	-6734
▁unresp	-6735
▁unsure	-6736
▁verbal	-6737
▁worked	-6738
balanced	-6739
hallpike	-6740
limiting	-6741
ositions	-6742
standing	-6743
tibility	-6744
ystagmus	-6745
▁backing	-6746
▁compare	-6747
▁crowded	-6748
▁degrees	-6749
▁differs	-6750
▁elevate	-6751
▁embolic	-6752
▁ergonom	-6753
▁extends	-6754
▁fillers	-6755
▁filters	-6756
▁finally	-6757
▁flushed	-6758
▁follows	-6759
▁forceps	-6760
▁greatly	-6761
▁heating	-6762
▁inhaler	-6763
▁injured	-6764
▁jewelry	-6765
▁leaving	-6766
▁lipomas	-6767
▁machine	-6768
▁mixture	-6769
▁moisten	-6770
▁newborn	-6771
▁osteoar	-6772
▁otology	-6773
▁palatal	-6774
▁pockets	-6775
▁reactiv	-6776
▁reading	-6777
▁reintro	-6778
▁sipping	-6779
▁sitting	-6780
▁sneezes	-6781
▁sterile	-6782
▁surface	-6783
▁surfing	-6784
▁tilting	-6785
▁touched	-6786
▁typical	-6787
▁unsatis	-6788
igibility	-6789
narrowing	-6790
tolerated	-6791
▁airborne	-6792
▁boosting	-6793
▁collects	-6794
▁combines	-6795
▁controls	-6796
▁deficits	-6797
▁deterior	-6798
▁dilators	-6799
▁emotions	-6800
▁fibrosis	-6801
▁friction	-6802
▁guarante	-6803
▁hydrogen	-6804
▁injected	-6805
▁insights	-6806
▁jaundice	-6807
▁licorice	-6808
▁negative	-6809
▁otoconia	-6810
▁outlined	-6811
▁overcome	-6812
▁peroxide	-6813
▁portions	-6814
▁produces	-6815
▁regimens	-6816
▁relevant	-6817
▁replaced	-6818
▁restrict	-6819
▁starting	-6820
▁strategy	-6821
▁stubborn	-6822
▁teachers	-6823
▁tolerate	-6824
▁unsteady	-6825
▁utensils	-6826
▁whiplash	-6827
▁worsened	-6828
behavioral	-6829
▁aftercare	-6830
▁autophony	-6831
▁awakening	-6832
▁awareness	-6833
▁childhood	-6834
▁collapses	-6835
▁collected	-6836
▁dehydrate	-6837
▁developed	-6838
▁dietitian	-6839
▁exposures	-6840
▁fussiness	-6841
▁heartburn	-6842
▁hindering	-6843
▁inflaming	-6844
▁integrity	-6845
▁intricate	-6846
▁ligaments	-6847
▁metabolic	-6848
▁migration	-6849
▁mountains	-6850
▁nystagmus	-6851
▁obstructs	-6852
▁perceives	-6853
▁prompting	-6854
▁regaining	-6855
▁safeguard	-6856
▁secondary	-6857
▁secretion	-6858
▁separates	-6859
▁syndromes	-6860
▁thickened	-6861
▁workplace	-6862
▁accidental	-6863
▁advantages	-6864
▁aeruginosa	-6865
▁attributed	-6866
▁background	-6867
▁detachment	-6868
▁electrical	-6869
▁expression	-6870
▁fulfilling	-6871
▁hyaluronic	-6872
▁importance	-6873
▁malignancy	-6874
▁manageable	-6875
▁mechanical	-6876
▁peppermint	-6877
▁predispose	-6878
▁presenting	-6879
▁proportion	-6880
▁protruding	-6881
▁realigning	-6882
▁reassuring	-6883
▁recovering	-6884
▁refraining	-6885
▁relationsh	-6886
▁resolution	-6887
▁retraining	-6888
▁rhinoscopy	-6889
▁structured	-6890
▁subsequent	-6891
▁variations	-6892
prescription	-6893
▁advancement	-6894
▁credentials	-6895
▁disruptions	-6896
▁encouraging	-6897
▁epinephrine	-6898
▁esophagitis	-6899
▁frustration	-6900
▁gastroenter	-6901
▁mediastinum	-6902
▁mouthguards	-6903
▁originating	-6904
▁problematic	-6905
▁pseudocysts	-6906
▁stimulating	-6907
▁stroboscopy	-6908
▁substitutes	-6909
complications	-6910
▁advancements	-6911
▁altercations	-6912
▁compensation	-6913
▁inadequately	-6914
▁repositioned	-6915
▁unresponsive	-6916
▁aesthetically	-6917
▁breastfeeding	-6918
▁clarification	-6919
▁deterioration	-6920
▁microsurgical	-6921
▁physiological	-6922
▁reconstructed	-6923
▁straightening	-6924
▁uncertainties	-6925
▁osteoarthritis	-6926
▁otolaryngology	-6927
▁susceptibility	-6928
▁unsatisfactory	-6929
▁intelligibility	-6930
▁ophthalmologist	-6931
▁transplantation	-6932
.,	-6933
1.	-6934
gg	-6935
ma	-6936
no	-6937
▁'	-6938
鈥檚	-6939
-20	-6940
abs	-6941
ana	-6942
aut	-6943
bra	-6944
cle	-6945
cnh	-6946
crs	-6947
eom	-6948
ert	-6949
iov	-6950
iro	-6951
leb	-6952
lla	-6953
oli	-6954
onv	-6955
ret	-6956
rob	-6957
typ	-6958
vcd	-6959
zed	-6960
▁24	-6961
▁3%	-6962
▁ru	-6963
▁tr	-6964
agen	-6965
amic	-6966
ansd	-6967
apar	-6968
aped	-6969
blue	-6970
brae	-6971
doms	-6972
elly	-6973
emic	-6974
gear	-6975
gill	-6976
ilib	-6977
irop	-6978
ises	-6979
kers	-6980
made	-6981
mega	-6982
nihl	-6983
ogen	-6984
oken	-6985
ounc	-6986
outs	-6987
poly	-6988
quam	-6989
ques	-6990
rhin	-6991
roid	-6992
rows	-6993
scds	-6994
tify	-6995
tist	-6996
ucin	-6997
uffs	-6998
umps	-6999
uris	-7000
▁2-6	-7001
▁4-6	-7002
▁80%	-7003
▁cbt	-7004
▁coc	-7005
▁emr	-7006
▁exc	-7007
▁flo	-7008
▁gap	-7009
▁job	-7010
▁mem	-7011
▁opt	-7012
▁rrp	-7013
▁zen	-7014
arran	-7015
based	-7016
cance	-7017
ecess	-7018
eline	-7019
enous	-7020
fered	-7021
fluor	-7022
holin	-7023
icrob	-7024
iders	-7025
insuf	-7026
inter	-7027
iomas	-7028
isshl	-7029
nutri	-7030
osome	-7031
phone	-7032
rogen	-7033
romat	-7034
scopy	-7035
somia	-7036
ssnhl	-7037
uches	-7038
ulent	-7039
verex	-7040
verse	-7041
▁appe	-7042
▁csom	-7043
▁docu	-7044
▁dyst	-7045
▁fuse	-7046
▁gain	-7047
▁gust	-7048
▁land	-7049
▁lose	-7050
▁pitu	-7051
▁puls	-7052
▁quan	-7053
▁rely	-7054
▁runs	-7055
▁sacs	-7056
▁sent	-7057
▁suff	-7058
▁tick	-7059
▁tree	-7060
▁trim	-7061
▁undi	-7062
▁wait	-7063
▁were	-7064
center	-7065
gement	-7066
gillus	-7067
icella	-7068
ineous	-7069
ishing	-7070
issing	-7071
itment	-7072
mbling	-7073
ocrine	-7074
onucle	-7075
onvuls	-7076
pected	-7077
proced	-7078
riages	-7079
tebrae	-7080
ulsion	-7081
umping	-7082
urized	-7083
▁1,000	-7084
▁10-15	-7085
▁15-20	-7086
▁aches	-7087
▁added	-7088
▁ahead	-7089
▁alarm	-7090
▁antim	-7091
▁asper	-7092
▁awake	-7093
▁beads	-7094
▁bites	-7095
▁bouts	-7096
▁costs	-7097
▁delve	-7098
▁drows	-7099
▁frame	-7100
▁lapar	-7101
▁loose	-7102
▁menop	-7103
▁metic	-7104
▁modal	-7105
▁motor	-7106
▁mumps	-7107
▁music	-7108
▁nebul	-7109
▁notes	-7110
▁omega	-7111
▁overl	-7112
▁pains	-7113
▁paper	-7114
▁petro	-7115
▁pinch	-7116
▁radio	-7117
▁safer	-7118
▁salty	-7119
▁scoli	-7120
▁shift	-7121
▁shows	-7122
▁smile	-7123
▁squam	-7124
▁steer	-7125
▁swift	-7126
▁table	-7127
▁twice	-7128
▁vagus	-7129
balance	-7130
dominal	-7131
eration	-7132
flation	-7133
growing	-7134
itative	-7135
jugular	-7136
racting	-7137
ruction	-7138
swimmer	-7139
▁arrive	-7140
▁behavi	-7141
▁births	-7142
▁bullae	-7143
▁button	-7144
▁chirop	-7145
▁choana	-7146
▁cracks	-7147
▁defens	-7148
▁dilate	-7149
▁divers	-7150
▁drinks	-7151
▁enzyme	-7152
▁evoked	-7153
▁formed	-7154
▁habitu	-7155
▁height	-7156
▁hidden	-7157
▁induce	-7158
▁inhale	-7159
▁metast	-7160
▁molars	-7161
▁opened	-7162
▁overex	-7163
▁overre	-7164
▁patent	-7165
▁remedy	-7166
▁resist	-7167
▁sexual	-7168
▁single	-7169
▁smells	-7170
▁softly	-7171
▁sputum	-7172
▁subtle	-7173
▁sweats	-7174
▁tested	-7175
▁thirst	-7176
▁thrive	-7177
▁widens	-7178
▁zenker	-7179
acterial	-7180
athyroid	-7181
ecessary	-7182
entional	-7183
icrobial	-7184
ilibrium	-7185
iovenous	-7186
proofing	-7187
versible	-7188
ximately	-7189
▁adverse	-7190
▁attempt	-7191
▁bandage	-7192
▁bruised	-7193
▁chamber	-7194
▁changed	-7195
▁cleared	-7196
▁climate	-7197
▁coating	-7198
▁condoms	-7199
▁created	-7200
▁efforts	-7201
▁glasses	-7202
▁glottis	-7203
▁greater	-7204
▁lingers	-7205
▁million	-7206
▁organic	-7207
▁overpro	-7208
▁patency	-7209
▁pillows	-7210
▁pitched	-7211
▁plaques	-7212
▁playing	-7213
▁pouches	-7214
▁proceed	-7215
▁project	-7216
▁ranulas	-7217
▁rearran	-7218
▁repairs	-7219
▁revised	-7220
▁rubbing	-7221
▁scalpel	-7222
▁sealing	-7223
▁seconds	-7224
▁slurred	-7225
▁smokers	-7226
▁staphyl	-7227
▁staples	-7228
▁thicker	-7229
canceling	-7230
frequency	-7231
nutrition	-7232
ventional	-7233
▁actually	-7234
▁adductor	-7235
▁assisted	-7236
▁believed	-7237
▁collagen	-7238
▁concerts	-7239
▁consangu	-7240
▁contains	-7241
▁corrects	-7242
▁creation	-7243
▁crevices	-7244
▁cyanosis	-7245
▁downward	-7246
▁earmuffs	-7247
▁efficacy	-7248
▁entirely	-7249
▁feedback	-7250
▁freezing	-7251
▁greenish	-7252
▁hallucin	-7253
▁hardened	-7254
▁headgear	-7255
▁humidify	-7256
▁ignoring	-7257
▁misunder	-7258
▁muscular	-7259
▁neuromas	-7260
▁overused	-7261
▁performs	-7262
▁pregnant	-7263
▁pronounc	-7264
▁purulent	-7265
▁reflexes	-7266
▁releases	-7267
▁replaces	-7268
▁resolved	-7269
▁severely	-7270
▁sexually	-7271
▁slightly	-7272
▁squamous	-7273
▁suffered	-7274
▁synchron	-7275
▁thumping	-7276
▁timeline	-7277
▁utilized	-7278
holinergic	-7279
onucleosis	-7280
procedural	-7281
▁attacking	-7282
▁attentive	-7283
▁autoinsuf	-7284
▁bacterium	-7285
▁beautiful	-7286
▁bronchial	-7287
▁bypassing	-7288
▁calcified	-7289
▁collapsed	-7290
▁congested	-7291
▁consulted	-7292
▁discussed	-7293
▁dislodged	-7294
▁disorient	-7295
▁dressings	-7296
▁embracing	-7297
▁endocrine	-7298
▁ergonomic	-7299
▁evaluates	-7300
▁excellent	-7301
▁exostosis	-7302
▁expanding	-7303
▁expulsion	-7304
▁gustatory	-7305
▁hydrating	-7306
▁incidence	-7307
▁inflating	-7308
▁influence	-7309
▁initially	-7310
▁intervene	-7311
▁irrigated	-7312
▁lubricate	-7313
▁marriages	-7314
▁nebulized	-7315
▁occurring	-7316
▁overnight	-7317
▁pituitary	-7318
▁resolving	-7319
▁scoliosis	-7320
▁varicella	-7321
▁vertebrae	-7322
▁yellowish	-7323
othyroidism	-7324
▁anesthetic	-7325
▁awakenings	-7326
▁beforehand	-7327
▁caregivers	-7328
▁chromosome	-7329
▁corrective	-7330
▁delivering	-7331
▁drowsiness	-7332
▁guaranteed	-7333
▁meticulous	-7334
▁microsomia	-7335
▁modalities	-7336
▁passageway	-7337
▁proceeding	-7338
▁progresses	-7339
▁prostheses	-7340
▁rebuilding	-7341
▁repeatedly	-7342
▁restricted	-7343
▁resumption	-7344
▁schwannoma	-7345
▁sclerosing	-7346
▁secretions	-7347
▁simulation	-7348
▁unexpected	-7349
▁videofluor	-7350
▁visibility	-7351
▁angiography	-7352
▁anticonvuls	-7353
▁arthroscopy	-7354
▁aspergillus	-7355
▁dehydrating	-7356
▁destruction	-7357
▁discontinue	-7358
▁distinctive	-7359
▁eosinophils	-7360
▁extensively	-7361
▁nasopharyng	-7362
▁necessitate	-7363
▁neurologist	-7364
▁parathyroid	-7365
▁penetration	-7366
▁permanently	-7367
▁preparatory	-7368
▁pressurized	-7369
▁preventable	-7370
▁proactively	-7371
▁professions	-7372
▁suitability	-7373
▁transplants	-7374
▁unnecessary	-7375
consciousness	-7376
tonsillectomy	-7377
▁chiropractic	-7378
▁consistently	-7379
▁constricting	-7380
▁conventional	-7381
▁degeneration	-7382
▁degenerative	-7383
▁irreversible	-7384
▁laryngoceles	-7385
▁malnutrition	-7386
▁manipulation	-7387
▁misdiagnosis	-7388
▁pathological	-7389
▁periodontist	-7390
▁preservation	-7391
▁reactivation	-7392
▁significance	-7393
▁antibacterial	-7394
▁antimicrobial	-7395
▁approximately	-7396
▁barosinusitis	-7397
▁collaborative	-7398
▁manifestation	-7399
▁medialization	-7400
▁mononucleosis	-7401
▁oropharyngeal	-7402
▁rearrangement	-7403
▁relationships	-7404
▁sensitivities	-7405
▁stabilization	-7406
▁tonsilloliths	-7407
▁unintentional	-7408
▁consanguineous	-7409
▁endoscopically	-7410
▁granulomatosis	-7411
▁hallucinations	-7412
▁hypothyroidism	-7413
▁irregularities	-7414
▁malfunctioning	-7415
▁overproduction	-7416
▁rehabilitative	-7417
▁staphylococcus	-7418
▁anticholinergic	-7419
-)	-7420
12	-7421
5-	-7422
dh	-7423
gd	-7424
gs	-7425
lc	-7426
rt	-7427
sk	-7428
sp	-7429
sv	-7430
wa	-7431
ws	-7432
▁9	-7433
**:	-7434
-30	-7435
-48	-7436
abh	-7437
amp	-7438
app	-7439
arl	-7440
bde	-7441
bir	-7442
che	-7443
def	-7444
des	-7445
dil	-7446
eps	-7447
esp	-7448
eva	-7449
ggy	-7450
iff	-7451
ihl	-7452
mat	-7453
mid	-7454
new	-7455
rur	-7456
see	-7457
tin	-7458
▁14	-7459
▁18	-7460
▁1?	-7461
▁22	-7462
▁48	-7463
▁5-	-7464
▁az	-7465
0-60	-7466
acic	-7467
ades	-7468
aine	-7469
aise	-7470
ampo	-7471
ands	-7472
atme	-7473
bear	-7474
caus	-7475
conn	-7476
cont	-7477
csom	-7478
cyst	-7479
debr	-7480
ecog	-7481
erge	-7482
etry	-7483
evas	-7484
fees	-7485
fist	-7486
ftri	-7487
home	-7488
icin	-7489
ifac	-7490
lers	-7491
leum	-7492
lion	-7493
moid	-7494
nife	-7495
ocol	-7496
omod	-7497
ower	-7498
owns	-7499
pery	-7500
prog	-7501
prot	-7502
psom	-7503
rett	-7504
ribe	-7505
shap	-7506
skin	-7507
ssic	-7508
tero	-7509
ters	-7510
veal	-7511
whel	-7512
wind	-7513
ynam	-7514
▁11.	-7515
▁2-3	-7516
▁85-	-7517
▁big	-7518
▁cnh	-7519
▁crp	-7520
▁cyl	-7521
▁err	-7522
▁fly	-7523
▁hgd	-7524
▁hon	-7525
▁iod	-7526
▁mat	-7527
▁mel	-7528
▁nit	-7529
▁opp	-7530
▁pad	-7531
▁pcr	-7532
▁pol	-7533
▁rar	-7534
▁rot	-7535
▁sat	-7536
▁sdh	-7537
▁six	-7538
▁sli	-7539
▁ten	-7540
▁und	-7541
▁wet	-7542
▁yet	-7543
absor	-7544
acity	-7545
aming	-7546
arlic	-7547
aters	-7548
atous	-7549
axone	-7550
birth	-7551
canal	-7552
depth	-7553
ength	-7554
entil	-7555
epend	-7556
esium	-7557
eutic	-7558
exist	-7559
ghter	-7560
gloss	-7561
iding	-7562
istry	-7563
iters	-7564
lebsi	-7565
level	-7566
males	-7567
mphas	-7568
newed	-7569
noise	-7570
ocomp	-7571
odies	-7572
ogues	-7573
ortun	-7574
overy	-7575
relie	-7576
rises	-7577
romus	-7578
slant	-7579
small	-7580
steps	-7581
teeth	-7582
tosis	-7583
where	-7584
▁abut	-7585
▁acad	-7586
▁acne	-7587
▁aged	-7588
▁bean	-7589
▁bord	-7590
▁clus	-7591
▁coat	-7592
▁copy	-7593
▁damp	-7594
▁deaf	-7595
▁dele	-7596
▁dirt	-7597
▁drop	-7598
▁elig	-7599
▁evas	-7600
▁five	-7601
▁foot	-7602
▁fund	-7603
▁hold	-7604
▁lyme	-7605
▁meal	-7606
▁nihl	-7607
▁odyn	-7608
▁orth	-7609
▁oval	-7610
▁prur	-7611
▁soap	-7612
▁sole	-7613
▁swit	-7614
▁sync	-7615
▁toys	-7616
▁wake	-7617
▁wish	-7618
▁writ	-7619
affect	-7620
afness	-7621
amount	-7622
apping	-7623
ategor	-7624
atmeal	-7625
atomas	-7626
bulbde	-7627
chodil	-7628
cochle	-7629
disord	-7630
ectual	-7631
erable	-7632
fitted	-7633
hibits	-7634
ilized	-7635
inders	-7636
istent	-7637
manage	-7638
mental	-7639
mented	-7640
middle	-7641
mporal	-7642
nsaids	-7643
office	-7644
ogenic	-7645
omatis	-7646
onasal	-7647
orrhea	-7648
otitis	-7649
ovirus	-7650
shaped	-7651
strept	-7652
styles	-7653
trauma	-7654
ubling	-7655
ulated	-7656
unting	-7657
ventil	-7658
verber	-7659
▁15-30	-7660
▁24-48	-7661
▁8,000	-7662
▁abras	-7663
▁absor	-7664
▁aided	-7665
▁alert	-7666
▁amino	-7667
▁apart	-7668
▁array	-7669
▁balls	-7670
▁bland	-7671
▁blows	-7672
▁burst	-7673
▁clues	-7674
▁crani	-7675
▁disse	-7676
▁dizzy	-7677
▁doses	-7678
▁downs	-7679
▁dries	-7680
▁dynam	-7681
▁edema	-7682
▁eight	-7683
▁escap	-7684
▁expel	-7685
▁flaky	-7686
▁gives	-7687
▁glass	-7688
▁going	-7689
▁highl	-7690
▁hyoid	-7691
▁incid	-7692
▁jelly	-7693
▁keeps	-7694
▁loses	-7695
▁magni	-7696
▁metal	-7697
▁molds	-7698
▁noses	-7699
▁ossic	-7700
▁penic	-7701
▁recre	-7702
▁round	-7703
▁scrap	-7704
▁shaky	-7705
▁shown	-7706
▁sites	-7707
▁sniff	-7708
▁snore	-7709
▁soups	-7710
▁spend	-7711
▁spurs	-7712
▁stops	-7713
▁trial	-7714
▁undue	-7715
▁utero	-7716
▁wedge	-7717
causing	-7718
cautery	-7719
factors	-7720
fitting	-7721
ifacial	-7722
inantly	-7723
itement	-7724
itivity	-7725
ophilus	-7726
orrhage	-7727
ractory	-7728
romised	-7729
thyroid	-7730
titudes	-7731
trachea	-7732
venient	-7733
▁10,000	-7734
▁40,000	-7735
▁50,000	-7736
▁85-90%	-7737
▁acting	-7738
▁aiming	-7739
▁arises	-7740
▁ascent	-7741
▁avoids	-7742
▁belief	-7743
▁boxers	-7744
▁ceftri	-7745
▁crusty	-7746
▁crypts	-7747
▁dermal	-7748
▁emphas	-7749
▁enters	-7750
▁flavor	-7751
▁garlic	-7752
▁gather	-7753
▁groggy	-7754
▁heated	-7755
▁hiccup	-7756
▁honest	-7757
▁impedi	-7758
▁incons	-7759
▁indust	-7760
▁inward	-7761
▁klebsi	-7762
▁lasers	-7763
▁length	-7764
▁losing	-7765
▁member	-7766
▁obtain	-7767
▁overlo	-7768
▁passes	-7769
▁photos	-7770
▁plates	-7771
▁purple	-7772
▁raised	-7773
▁rarity	-7774
▁recurs	-7775
▁reveal	-7776
▁screws	-7777
▁settle	-7778
▁shampo	-7779
▁shaped	-7780
▁sought	-7781
▁spoken	-7782
▁steamy	-7783
▁strive	-7784
▁unbear	-7785
▁unprot	-7786
▁videon	-7787
▁winter	-7788
earinfec	-7789
odynamic	-7790
reatment	-7791
recovery	-7792
slanting	-7793
swelling	-7794
teroidal	-7795
thinning	-7796
tinnitus	-7797
ulations	-7798
windpipe	-7799
▁account	-7800
▁adjunct	-7801
▁augment	-7802
▁barrett	-7803
▁believe	-7804
▁blurred	-7805
▁breaths	-7806
▁bruises	-7807
▁categor	-7808
▁centers	-7809
▁choices	-7810
▁cleanse	-7811
▁cocaine	-7812
▁creases	-7813
▁damages	-7814
▁defense	-7815
▁descent	-7816
▁diverse	-7817
▁dosages	-7818
▁drained	-7819
▁echoing	-7820
▁engaged	-7821
▁excised	-7822
▁females	-7823
▁fragile	-7824
▁genital	-7825
▁impairs	-7826
▁infects	-7827
▁injects	-7828
▁landing	-7829
▁malaise	-7830
▁mapping	-7831
▁movable	-7832
▁narrows	-7833
▁oatmeal	-7834
▁overlap	-7835
▁oversee	-7836
▁pitches	-7837
▁realize	-7838
▁records	-7839
▁relaxes	-7840
▁renewed	-7841
▁rubella	-7842
▁scarred	-7843
▁secured	-7844
▁sending	-7845
▁shouldn	-7846
▁sockets	-7847
▁streaks	-7848
▁stretch	-7849
▁sunburn	-7850
▁surfers	-7851
▁tablets	-7852
▁takeoff	-7853
▁tasting	-7854
▁tracheo	-7855
▁utilize	-7856
▁vaccine	-7857
▁vocalis	-7858
▁whereas	-7859
▁widened	-7860
▁writing	-7861
absorbing	-7862
autophony	-7863
connected	-7864
ococcalph	-7865
sinusitis	-7866
▁abductor	-7867
▁abutment	-7868
▁academic	-7869
▁accesses	-7870
▁achieved	-7871
▁adapting	-7872
▁anywhere	-7873
▁becoming	-7874
▁brighter	-7875
▁bubbling	-7876
▁capacity	-7877
▁carrying	-7878
▁deciding	-7879
▁deflated	-7880
▁delaying	-7881
▁deletion	-7882
▁dentists	-7883
▁describe	-7884
▁dynamics	-7885
▁elements	-7886
▁eligible	-7887
▁embolism	-7888
▁equipped	-7889
▁estimate	-7890
▁examined	-7891
▁excising	-7892
▁exhibits	-7893
▁fainting	-7894
▁fluoride	-7895
▁forceful	-7896
▁habitual	-7897
▁independ	-7898
▁ligament	-7899
▁lymphoid	-7900
▁magnetic	-7901
▁modulate	-7902
▁myogenic	-7903
▁necrotic	-7904
▁neuromus	-7905
▁nitrogen	-7906
▁noticing	-7907
▁odorless	-7908
▁oncology	-7909
▁opportun	-7910
▁optimism	-7911
▁overwhel	-7912
▁palpable	-7913
▁pleasant	-7914
▁polluted	-7915
▁protocol	-7916
▁pruritus	-7917
▁puncture	-7918
▁rebuilds	-7919
▁responds	-7920
▁resulted	-7921
▁reverber	-7922
▁shoulder	-7923
▁softened	-7924
▁speakers	-7925
▁speculum	-7926
▁struggle	-7927
▁suturing	-7928
▁tendency	-7929
▁thoracic	-7930
▁tickling	-7931
▁trimming	-7932
▁vaccines	-7933
▁wellness	-7934
▁whispery	-7935
disordered	-7936
management	-7937
prevention	-7938
ventilated	-7939
▁abdominal	-7940
▁abrasions	-7941
▁arteritis	-7942
▁behaviors	-7943
▁biologics	-7944
▁comprises	-7945
▁conducive	-7946
▁constrict	-7947
▁cylinders	-7948
▁diagnoses	-7949
▁documents	-7950
▁electrode	-7951
▁elevation	-7952
▁enjoyable	-7953
▁hardening	-7954
▁heaviness	-7955
▁immunomod	-7956
▁intensive	-7957
▁lymphatic	-7958
▁magnesium	-7959
▁manifests	-7960
▁medicated	-7961
▁menopause	-7962
▁microdebr	-7963
▁mimicking	-7964
▁minimizes	-7965
▁offending	-7966
▁otoscopic	-7967
▁overlying	-7968
▁palpation	-7969
▁paperwork	-7970
▁paralyzed	-7971
▁paramount	-7972
▁petroleum	-7973
▁pneumatic	-7974
▁practical	-7975
▁premolars	-7976
▁prioritiz	-7977
▁processor	-7978
▁protected	-7979
▁puffiness	-7980
▁pulsating	-7981
▁regulates	-7982
▁releasing	-7983
▁reporting	-7984
▁retinitis	-7985
▁satisfied	-7986
▁screaming	-7987
▁sinonasal	-7988
▁stressful	-7989
▁struggles	-7990
▁supplying	-7991
▁troubling	-7992
▁turbulent	-7993
▁wrestlers	-7994
chodilators	-7995
mastoiditis	-7996
riskfactors	-7997
tonsillitis	-7998
waardenburg	-7999
▁amplifying	-8000
▁antibodies	-8001
▁attempting	-8002
▁attendance	-8003
▁childbirth	-8004
▁chondritis	-8005
▁commitment	-8006
▁conducting	-8007
▁constantly	-8008
▁decompress	-8009
▁directions	-8010
▁electrodes	-8011
▁essentials	-8012
▁eventually	-8013
▁excitement	-8014
▁explaining	-8015
▁facilities	-8016
▁foundation	-8017
▁hairstyles	-8018
▁harvesting	-8019
▁hemifacial	-8020
▁hemorrhage	-8021
▁immunocomp	-8022
▁indication	-8023
▁indicators	-8024
▁influenzae	-8025
▁invasively	-8026
▁klebsiella	-8027
▁metastasis	-8028
▁moistening	-8029
▁nutritious	-8030
▁optimizing	-8031
▁overreacts	-8032
▁penicillin	-8033
▁perceiving	-8034
▁pigmentosa	-8035
▁pneumoniae	-8036
▁positively	-8037
▁refractory	-8038
▁reputation	-8039
▁resembling	-8040
▁satisfying	-8041
▁septicemia	-8042
▁stimulants	-8043
▁suctioning	-8044
▁tightening	-8045
▁transition	-8046
▁underwater	-8047
▁undigested	-8048
▁vaccinated	-8049
▁ventilator	-8050
angiofibroma	-8051
▁ceftriaxone	-8052
▁collaborate	-8053
▁compensates	-8054
▁composition	-8055
▁corrections	-8056
▁differences	-8057
▁encompasses	-8058
▁equilibrium	-8059
▁eradication	-8060
▁expressions	-8061
▁formulating	-8062
▁generalized	-8063
▁generations	-8064
▁granulation	-8065
▁haemophilus	-8066
▁impediments	-8067
▁implemented	-8068
▁incorrectly	-8069
▁interaction	-8070
▁meningiomas	-8071
▁nervousness	-8072
▁occurrences	-8073
▁odynophagia	-8074
▁oxygenation	-8075
▁passageways	-8076
▁persistence	-8077
▁pinpointing	-8078
▁pronouncing	-8079
▁recurrences	-8080
▁reintroduce	-8081
▁replication	-8082
▁repositions	-8083
▁retractions	-8084
▁symmetrical	-8085
▁therapeutic	-8086
▁unconscious	-8087
▁unprotected	-8088
▁vascularity	-8089
▁visualizing	-8090
cochleography	-8091
jugularbulbde	-8092
ushersyndrome	-8093
▁construction	-8094
▁embarrassing	-8095
▁establishing	-8096
▁histological	-8097
▁inconsistent	-8098
▁intellectual	-8099
▁measurements	-8100
▁modification	-8101
▁nasendoscopy	-8102
▁neurologists	-8103
▁nonsteroidal	-8104
▁persistently	-8105
▁photodynamic	-8106
▁predisposing	-8107
▁radiologists	-8108
▁recommending	-8109
▁recreational	-8110
▁arteriovenous	-8111
▁collaboration	-8112
▁concentration	-8113
▁consideration	-8114
▁consistencies	-8115
▁discomforting	-8116
▁dysfunctional	-8117
▁embarrassment	-8118
▁granulomatous	-8119
▁investigating	-8120
▁knowledgeable	-8121
▁laryngospasms	-8122
▁neuromuscular	-8123
▁soundproofing	-8124
▁turbinoplasty	-8125
▁electrocautery	-8126
▁interconnected	-8127
▁intermittently	-8128
▁anticonvulsants	-8129
▁bronchodilators	-8130
▁comprehensively	-8131
▁postoperatively	-8132
▁reconstructions	-8133
1,	-8134
2.	-8135
5.	-8136
az	-8137
hn	-8138
la	-8139
my	-8140
pr	-8141
td	-8142
▁q	-8143
▁–	-8144
-4%	-8145
-45	-8146
0-7	-8147
0-9	-8148
12,	-8149
5%.	-8150
500	-8151
:**	-8152
aca	-8153
afs	-8154
agg	-8155
ags	-8156
asi	-8157
ats	-8158
avi	-8159
bby	-8160
bye	-8161
cor	-8162
cum	-8163
dar	-8164
dys	-8165
els	-8166
fig	-8167
fna	-8168
hic	-8169
ify	-8170
ilt	-8171
led	-8172
lor	-8173
mis	-8174
ocy	-8175
ohy	-8176
ops	-8177
oxy	-8178
pir	-8179
ppp	-8180
rep	-8181
rex	-8182
rsv	-8183
sal	-8184
sud	-8185
sup	-8186
thy	-8187
tms	-8188
trt	-8189
umb	-8190
ums	-8191
zzy	-8192
▁).	-8193
▁1:	-8194
▁2,	-8195
▁3-	-8196
▁5%	-8197
▁60	-8198
▁dy	-8199
bv	-8200
ög	-8201
ebv	-8202
fre	-8203
lit	-8204
llo	-8205
lyc	-8206
ouc	-8207
sis	-8208
sul	-8209
tur	-8210
vis	-8211
was	-8212
▁fm	-8213
▁fu	-8214
-19?	-8215
acid	-8216
amma	-8217
andt	-8218
angs	-8219
apor	-8220
atio	-8221
ault	-8222
band	-8223
chew	-8224
chol	-8225
cord	-8226
dish	-8227
dizz	-8228
edic	-8229
egal	-8230
ells	-8231
enza	-8232
eshy	-8233
eted	-8234
grad	-8235
hair	-8236
heal	-8237
hero	-8238
imab	-8239
iofe	-8240
lelc	-8241
lial	-8242
most	-8243
mpho	-8244
nerv	-8245
nfib	-8246
nica	-8247
nose	-8248
olds	-8249
ompl	-8250
oppl	-8251
owel	-8252
oxia	-8253
pace	-8254
phar	-8255
pins	-8256
poon	-8257
ppis	-8258
proc	-8259
quin	-8260
quis	-8261
rams	-8262
raom	-8263
rare	-8264
rast	-8265
rate	-8266
rawl	-8267
rich	-8268
ried	-8269
rier	-8270
rous	-8271
salt	-8272
sept	-8273
smok	-8274
somn	-8275
stru	-8276
tear	-8277
terg	-8278
thot	-8279
tips	-8280
tran	-8281
type	-8282
uity	-8283
ulot	-8284
uper	-8285
used	-8286
vemp	-8287
ware	-8288
xime	-8289
year	-8290
ylal	-8291
zine	-8292
▁1,2	-8293
▁1-3	-8294
▁3-6	-8295
▁5-1	-8296
▁50%	-8297
▁70%	-8298
▁abd	-8299
,'	-8300
."	-8301
3,	-8302
▁|	-8303
men	-8304
mes	-8305
par	-8306
▁vo	-8307
ardi	-8308
iday	-8309
lorp	-8310
mpon	-8311
olts	-8312
wear	-8313
▁abi	-8314
▁abr	-8315
▁als	-8316
▁cyt	-8317
▁dem	-8318
▁emg	-8319
▁etd	-8320
▁exa	-8321
▁had	-8322
▁isn	-8323
▁mom	-8324
▁myb	-8325
▁net	-8326
▁nic	-8327
▁now	-8328
▁otc	-8329
▁pan	-8330
▁raw	-8331
▁rej	-8332
▁say	-8333
▁she	-8334
▁ski	-8335
▁tap	-8336
▁tom	-8337
▁ups	-8338
▁vul	-8339
▁wit	-8340
▁yog	-8341
0-70%	-8342
after	-8343
alone	-8344
anine	-8345
anocy	-8346
antom	-8347
appro	-8348
argin	-8349
ashes	-8350
asias	-8351
atten	-8352
aults	-8353
avily	-8354
bally	-8355
black	-8356
derly	-8357
dioxy	-8358
direc	-8359
drain	-8360
ector	-8361
ecure	-8362
ested	-8363
fluid	-8364
freys	-8365
fumes	-8366
gener	-8367
grade	-8368
haust	-8369
iance	-8370
ients	-8371
image	-8372
inery	-8373
intig	-8374
iston	-8375
lofen	-8376
lycos	-8377
media	-8378
ocent	-8379
ogged	-8380
ograp	-8381
orous	-8382
ostro	-8383
ounds	-8384
poses	-8385
ppery	-8386
racts	-8387
radts	-8388
raper	-8389
renic	-8390
resol	-8391
ringo	-8392
scler	-8393
sever	-8394
sized	-8395
sound	-8396
stood	-8397
tling	-8398
toxic	-8399
uards	-8400
ulopl	-8401
ulote	-8402
ureus	-8403
utral	-8404
vocal	-8405
ögren	-8406
▁1,2-	-8407
▁1000	-8408
▁arid	-8409
▁arti	-8410
▁avms	-8411
▁bina	-8412
▁blog	-8413
▁boys	-8414
▁cefi	-8415
▁copd	-8416
▁cuff	-8417
▁cups	-8418
▁dams	-8419
▁deal	-8420
▁dent	-8421
▁edge	-8422
▁enab	-8423
▁ends	-8424
▁ents	-8425
▁flak	-8426
▁gang	-8427
▁hasn	-8428
▁hope	-8429
▁hues	-8430
▁hurt	-8431
▁inop	-8432
▁kept	-8433
▁kids	-8434
▁loop	-8435
▁loos	-8436
▁mean	-8437
▁noti	-8438
▁opin	-8439
▁pads	-8440
▁pale	-8441
▁phon	-8442
▁pink	-8443
▁pins	-8444
▁polr	-8445
▁port	-8446
▁prov	-8447
▁puts	-8448
▁raom	-8449
▁rasp	-8450
▁rays	-8451
▁reco	-8452
▁rein	-8453
▁rise	-8454
▁send	-8455
▁soil	-8456
▁soup	-8457
▁stab	-8458
▁stit	-8459
▁suck	-8460
▁teen	-8461
▁uppp	-8462
▁wast	-8463
▁wire	-8464
▁wood	-8465
0-95%.	-8466
ainflu	-8467
aining	-8468
ancies	-8469
arging	-8470
athiop	-8471
bleeds	-8472
branch	-8473
change	-8474
coming	-8475
cortis	-8476
cytial	-8477
daroff	-8478
defini	-8479
entary	-8480
ertion	-8481
excess	-8482
fiable	-8483
figure	-8484
flight	-8485
genase	-8486
goiter	-8487
iation	-8488
icable	-8489
icians	-8490
ieties	-8491
iodine	-8492
ipated	-8493
ivered	-8494
liomas	-8495
making	-8496
nessed	-8497
ohyoid	-8498
onants	-8499
opedic	-8500
oppler	-8501
oshing	-8502
osions	-8503
osynos	-8504
pocket	-8505
posure	-8506
ptions	-8507
racted	-8508
ressed	-8509
rested	-8510
rexate	-8511
rickle	-8512
rophys	-8513
rosine	-8514
screen	-8515
termef	-8516
uccess	-8517
umella	-8518
ungals	-8519
▁10-14	-8520
▁2,500	-8521
▁30-45	-8522
▁30-60	-8523
▁5,000	-8524
▁ampho	-8525
▁ample	-8526
▁backs	-8527
▁bells	-8528
▁biofe	-8529
▁bobby	-8530
▁bothe	-8531
▁bowel	-8532
▁bulla	-8533
▁cared	-8534
▁chews	-8535
▁chord	-8536
▁clove	-8537
▁colon	-8538
▁crawl	-8539
▁crohn	-8540
▁cycle	-8541
▁cytom	-8542
▁detri	-8543
▁dryer	-8544
▁dyspl	-8545
▁earlo	-8546
▁empow	-8547
▁entry	-8548
▁exagg	-8549
▁excep	-8550
▁exhal	-8551
▁fades	-8552
▁flags	-8553
▁flaps	-8554
▁folic	-8555
▁fresh	-8556
▁fuzzy	-8557
▁gamma	-8558
▁hangs	-8559
▁hello	-8560
▁intro	-8561
▁jolts	-8562
▁knife	-8563
▁later	-8564
▁lined	-8565
▁maloc	-8566
▁match	-8567
▁meant	-8568
▁obtur	-8569
▁opens	-8570
▁peace	-8571
▁pills	-8572
▁plugs	-8573
▁poses	-8574
▁power	-8575
▁ratio	-8576
▁reatt	-8577
▁recip	-8578
▁repro	-8579
▁risky	-8580
▁seems	-8581
▁setup	-8582
▁slouc	-8583
▁sneak	-8584
▁steth	-8585
▁strip	-8586
▁tends	-8587
▁thigh	-8588
▁today	-8589
▁tones	-8590
▁towel	-8591
▁toxic	-8592
▁trims	-8593
▁unsan	-8594
▁users	-8595
▁vapor	-8596
▁veins	-8597
▁views	-8598
▁walls	-8599
▁yield	-8600
acauses	-8601
ameters	-8602
anosmia	-8603
arhinia	-8604
blowing	-8605
cranial	-8606
espread	-8607
etiform	-8608
faceted	-8609
fistula	-8610
hausted	-8611
itizing	-8612
medical	-8613
meniere	-8614
minated	-8615
missing	-8616
mponade	-8617
myringo	-8618
nerable	-8619
oglycos	-8620
ogogues	-8621
osocial	-8622
perspir	-8623
smokers	-8624
stridor	-8625
talking	-8626
tericin	-8627
warding	-8628
washing	-8629
▁70-90%	-8630
▁absorb	-8631
▁acquis	-8632
▁actors	-8633
▁acuity	-8634
▁adenot	-8635
▁aligns	-8636
▁almost	-8637
▁alters	-8638
▁amoxic	-8639
▁arnica	-8640
▁aromat	-8641
▁aspect	-8642
▁athero	-8643
▁attach	-8644
▁aureus	-8645
▁babies	-8646
▁border	-8647
▁brandt	-8648
▁bright	-8649
▁burden	-8650
▁calibr	-8651
▁canker	-8652
▁checks	-8653
▁chlorp	-8654
▁closes	-8655
▁colder	-8656
▁covers	-8657
▁dermat	-8658
▁deterg	-8659
▁disuse	-8660
▁emerge	-8661
▁enrich	-8662
▁epider	-8663
▁errors	-8664
▁erythe	-8665
▁fleshy	-8666
▁flyers	-8667
▁forums	-8668
▁friday	-8669
▁graves	-8670
▁ground	-8671
▁guards	-8672
▁hemost	-8673
▁ignore	-8674
▁infilt	-8675
▁inject	-8676
▁iodine	-8677
▁lastly	-8678
▁ligate	-8679
▁margin	-8680
▁marsup	-8681
▁medium	-8682
▁metals	-8683
▁methot	-8684
▁microb	-8685
▁missed	-8686
▁monday	-8687
▁mostly	-8688
▁mother	-8689
▁nodule	-8690
▁notify	-8691
▁ochron	-8692
▁paying	-8693
▁piston	-8694
▁plaque	-8695
▁posing	-8696
▁predom	-8697
▁pulled	-8698
▁reacts	-8699
▁reconn	-8700
▁resort	-8701
▁shield	-8702
▁simply	-8703
▁singer	-8704
▁sleepy	-8705
▁solely	-8706
▁sooner	-8707
▁spells	-8708
▁staged	-8709
▁starch	-8710
▁suffoc	-8711
▁sugary	-8712
▁supple	-8713
▁taught	-8714
▁tendon	-8715
▁unless	-8716
▁voices	-8717
▁window	-8718
▁wounds	-8719
abnormal	-8720
airplane	-8721
angiitis	-8722
angiofib	-8723
anocytes	-8724
centesis	-8725
cleaning	-8726
complete	-8727
deafness	-8728
drainage	-8729
duration	-8730
ectively	-8731
fibromas	-8732
juvenile	-8733
misalign	-8734
ractable	-8735
romazine	-8736
shprintz	-8737
sounding	-8738
swimming	-8739
ulectomy	-8740
▁abdomen	-8741
▁anomaly	-8742
▁antigen	-8743
▁applies	-8744
▁audible	-8745
▁barrier	-8746
▁bedding	-8747
▁bedside	-8748
▁bedtime	-8749
▁beliefs	-8750
▁blephar	-8751
▁bubbles	-8752
▁bulbous	-8753
▁candles	-8754
▁cardiac	-8755
▁caution	-8756
▁cleaned	-8757
▁clogged	-8758
▁cluster	-8759
▁coexist	-8760
▁consume	-8761
▁continu	-8762
▁cracked	-8763
▁demands	-8764
▁diluted	-8765
▁discrep	-8766
▁distant	-8767
▁doppler	-8768
▁elderly	-8769
▁embrace	-8770
▁episode	-8771
▁example	-8772
▁exposes	-8773
▁fibrous	-8774
▁fingers	-8775
▁flatten	-8776
▁fundopl	-8777
▁gliomas	-8778
▁goiters	-8779
▁goodbye	-8780
▁grating	-8781
▁gravity	-8782
▁gushing	-8783
▁hardens	-8784
▁heavily	-8785
▁hissing	-8786
▁hitting	-8787
▁holding	-8788
▁hypoxia	-8789
▁ideally	-8790
▁inappro	-8791
▁inhaled	-8792
▁inwards	-8793
▁killing	-8794
▁ligated	-8795
▁masking	-8796
▁members	-8797
▁menthol	-8798
▁mineral	-8799
▁mutated	-8800
▁network	-8801
▁neutral	-8802
▁notable	-8803
▁noticed	-8804
▁numbers	-8805
▁nursing	-8806
▁oculopl	-8807
▁package	-8808
▁parched	-8809
▁passive	-8810
▁phantom	-8811
▁phrenic	-8812
▁pleural	-8813
▁pooling	-8814
▁recuper	-8815
▁reddish	-8816
▁scintig	-8817
▁scraper	-8818
▁shortly	-8819
▁showing	-8820
▁sjögren	-8821
▁speaker	-8822
▁species	-8823
▁strains	-8824
▁suffers	-8825
▁tapered	-8826
▁teasing	-8827
▁thereby	-8828
▁trickle	-8829
▁trusted	-8830
▁uncompl	-8831
▁vibrant	-8832
▁wegener	-8833
affecting	-8834
audiogram	-8835
branchial	-8836
ciousness	-8837
cortisone	-8838
dizziness	-8839
epistaxis	-8840
excessive	-8841
inflation	-8842
nervation	-8843
ocentesis	-8844
otracheal	-8845
procedure	-8846
reduction	-8847
relapsing	-8848
relieving	-8849
sclerosis	-8850
severance	-8851
typically	-8852
uccessful	-8853
vocalcord	-8854
ylalanine	-8855
▁abrasive	-8856
▁achieves	-8857
▁adenomas	-8858
▁advances	-8859
▁alarming	-8860
▁anchored	-8861
▁arteries	-8862
▁assaults	-8863
▁attitude	-8864
▁azathiop	-8865
▁backward	-8866
▁baclofen	-8867
▁bandages	-8868
▁binaural	-8869
▁bothered	-8870
▁breaking	-8871
▁breathes	-8872
▁breeding	-8873
▁brownish	-8874
▁building	-8875
▁bullying	-8876
▁catching	-8877
▁cefixime	-8878
▁checkups	-8879
▁computer	-8880
▁contents	-8881
▁contrast	-8882
▁cytology	-8883
▁deformed	-8884
▁devising	-8885
▁diabetic	-8886
▁enabling	-8887
▁enjoying	-8888
▁escaping	-8889
▁exertion	-8890
▁familial	-8891
▁feelings	-8892
▁floaters	-8893
▁footwear	-8894
▁ganglion	-8895
▁globally	-8896
▁hairpins	-8897
▁headband	-8898
▁hormones	-8899
▁immature	-8900
▁immobile	-8901
▁included	-8902
▁inflames	-8903
▁inhalers	-8904
▁insecure	-8905
▁interact	-8906
▁irrigate	-8907
▁isolated	-8908
▁lighting	-8909
▁lymphoma	-8910
▁matching	-8911
▁modified	-8912
▁monitors	-8913
▁necrosis	-8914
▁nutrient	-8915
▁opinions	-8916
▁ordering	-8917
▁ossicles	-8918
▁otologic	-8919
▁partners	-8920
▁perfumes	-8921
▁pinching	-8922
▁priority	-8923
▁purposes	-8924
▁quantify	-8925
▁question	-8926
▁refining	-8927
▁released	-8928
▁reshaped	-8929
▁reshapes	-8930
▁resonate	-8931
▁restless	-8932
▁retching	-8933
▁rhinoman	-8934
▁sampling	-8935
▁scraping	-8936
▁securely	-8937
▁separate	-8938
▁shampoos	-8939
▁slippery	-8940
▁sniffing	-8941
▁speeding	-8942
▁spraying	-8943
▁stabbing	-8944
▁streaked	-8945
▁supports	-8946
▁tapering	-8947
▁teaspoon	-8948
▁tripping	-8949
▁tyrosine	-8950
▁uniquely	-8951
▁vaporize	-8952
▁verbally	-8953
▁vigorous	-8954
▁whenever	-8955
ainfluenza	-8956
contagious	-8957
definition	-8958
egalovirus	-8959
ensyndrome	-8960
figurement	-8961
longtermef	-8962
nosebleeds	-8963
oglycoside	-8964
surgically	-8965
thyroidism	-8966
▁accessing	-8967
▁activated	-8968
▁altitudes	-8969
▁anxieties	-8970
▁appealing	-8971
▁assisting	-8972
▁audiology	-8973
▁carbonate	-8974
▁caregiver	-8975
▁chemistry	-8976
▁chordomas	-8977
▁cleanings	-8978
▁coblation	-8979
▁columella	-8980
▁compounds	-8981
▁considers	-8982
▁delivered	-8983
▁dentistry	-8984
▁directing	-8985
▁dissected	-8986
▁dystrophy	-8987
▁educating	-8988
▁effortful	-8989
▁encompass	-8990
▁encounter	-8991
▁enlarging	-8992
▁establish	-8993
▁exhausted	-8994
▁exostoses	-8995
▁flakiness	-8996
▁flavorful	-8997
▁formulate	-8998
▁framework	-8999
▁gathering	-9000
▁habituate	-9001
▁happening	-9002
▁harvested	-9003
▁headphone	-9004
▁incidents	-9005
▁infecting	-9006
▁informing	-9007
▁inspected	-9008
▁integrate	-9009
▁intervals	-9010
▁investing	-9011
▁irritable	-9012
▁loosening	-9013
▁machinery	-9014
▁malformed	-9015
▁measuring	-9016
▁minimized	-9017
▁momentary	-9018
▁necessity	-9019
▁notifying	-9020
▁occlusion	-9021
▁partition	-9022
▁pathology	-9023
▁positions	-9024
▁presented	-9025
▁prognoses	-9026
▁raspiness	-9027
▁recovered	-9028
▁rejection	-9029
▁remission	-9030
▁resistant	-9031
▁restricts	-9032
▁revisions	-9033
▁rewarding	-9034
▁slouching	-9035
▁specially	-9036
▁sunscreen	-9037
▁switching	-9038
▁syncytial	-9039
▁tamponade	-9040
▁technical	-9041
▁tolerated	-9042
▁transient	-9043
▁transmits	-9044
▁valuables	-9045
▁vibrating	-9046
▁videostro	-9047
▁whooshing	-9048
▁witnessed	-9049
▁workspace	-9050
development	-9051
dioxygenase	-9052
odynophagia	-9053
osynostosis	-9054
otitismedia	-9055
perspirants	-9056
progressive	-9057
ressyndrome	-9058
somnography	-9059
ulotemporal	-9060
▁activating	-9061
▁adaptation	-9062
▁aggravated	-9063
▁alleviates	-9064
▁angiograms	-9065
▁antivirals	-9066
▁artificial	-9067
▁audiologic	-9068
▁benefiting	-9069
▁carbonated	-9070
▁compliance	-9071
▁consonants	-9072
▁contacting	-9073
▁convenient	-9074
▁dehydrated	-9075
▁depression	-9076
▁destroying	-9077
▁detergents	-9078
▁determined	-9079
▁dislodging	-9080
▁dysplastic	-9081
▁eliminates	-9082
▁elongation	-9083
▁encouraged	-9084
▁enrichment	-9085
▁epidermoid	-9086
▁excisional	-9087
▁expectancy	-9088
▁explosions	-9089
▁externally	-9090
▁extracting	-9091
▁fragmented	-9092
▁generation	-9093
▁generators	-9094
▁highlights	-9095
▁histamines	-9096
▁humidified	-9097
▁industries	-9098
▁inheriting	-9099
▁inoperable	-9100
▁localizing	-9101
▁magnifying	-9102
▁microphone	-9103
▁negatively	-9104
▁ochronosis	-9105
▁orthopedic	-9106
▁overlooked	-9107
▁overseeing	-9108
▁parameters	-9109
▁physicists	-9110
▁preference	-9111
▁priorities	-9112
▁radiologic	-9113
▁repetition	-9114
▁resistance	-9115
▁responsive	-9116
▁saturation	-9117
▁separation	-9118
▁standalone	-9119
▁stiffening	-9120
▁stylohyoid	-9121
▁suspension	-9122
▁tomography	-9123
▁turbulence	-9124
▁unbearably	-9125
▁unsanitary	-9126
▁visualized	-9127
▁vulnerable	-9128
▁widespread	-9129
earinfection	-9130
freysyndrome	-9131
glossoptosis	-9132
laryngectomy	-9133
misalignment	-9134
mucormycosis	-9135
onsillectomy	-9136
▁accumulated	-9137
▁acquisition	-9138
▁amoxicillin	-9139
▁anesthetics	-9140
▁antianxiety	-9141
▁anticipated	-9142
▁antifungals	-9143
▁biofeedback	-9144
▁candidiasis	-9145
▁carcinogens	-9146
▁categorized	-9147
▁connections	-9148
▁constricted	-9149
▁contracting	-9150
▁detrimental	-9151
▁discomforts	-9152
▁discussions	-9153
▁disoriented	-9154
▁electrophys	-9155
▁emphasizing	-9156
▁endoscopies	-9157
▁engagements	-9158
▁enhancement	-9159
▁exacerbates	-9160
▁exaggerated	-9161
▁exceptional	-9162
▁exploration	-9163
▁fluctuating	-9164
▁genetically	-9165
▁habituation	-9166
▁handwashing	-9167
▁herpetiform	-9168
▁hyperplasia	-9169
▁hypopharynx	-9170
▁impairments	-9171
▁integrating	-9172
▁integration	-9173
▁interrupted	-9174
▁intractable	-9175
▁irritations	-9176
▁manipulates	-9177
▁measurement	-9178
▁melanocytes	-9179
▁overwhelmed	-9180
▁pathologies	-9181
▁perceptions	-9182
▁periodontal	-9183
▁populations	-9184
▁prematurely	-9185
▁prioritized	-9186
▁prominently	-9187
▁prosthetics	-9188
▁remembering	-9189
▁researching	-9190
▁restricting	-9191
▁schwannomas	-9192
▁sialogogues	-9193
▁stabilizing	-9194
▁stethoscope	-9195
▁subsections	-9196
▁suppressing	-9197
▁technicians	-9198
▁transparent	-9199
▁understands	-9200
▁utilization	-9201
angiofibromat	-9202
relapsingpoly	-9203
▁amphotericin	-9204
▁aromatherapy	-9205
▁azathioprine	-9206
▁compensatory	-9207
▁disabilities	-9208
▁disorienting	-9209
▁disseminated	-9210
▁endotracheal	-9211
▁facilitating	-9212
▁hypertension	-9213
▁identifiable	-9214
▁independence	-9215
▁infiltration	-9216
▁insufficient	-9217
▁interference	-9218
▁laparoscopic	-9219
▁malocclusion	-9220
▁manipulating	-9221
▁methotrexate	-9222
▁meticulously	-9223
▁nutritionist	-9224
▁oculoplastic	-9225
▁overexertion	-9226
▁overexposure	-9227
▁perseverance	-9228
▁polyangiitis	-9229
▁psychosocial	-9230
▁reattachment	-9231
▁requirements	-9232
▁respectively	-9233
▁safeguarding	-9234
▁scintigraphy	-9235
▁surroundings	-9236
▁synchronizes	-9237
▁transcranial	-9238
▁transmitting	-9239
▁unsuccessful	-9240
▁vocalization	-9241
mastoidfistula	-9242
▁angiofibromas	-9243
▁autoinflation	-9244
▁calcification	-9245
▁consciousness	-9246
▁customization	-9247
▁dermatologist	-9248
▁disfigurement	-9249
▁homogentisate	-9250
▁inappropriate	-9251
▁intravenously	-9252
▁investigation	-9253
▁involuntarily	-9254
▁mediastinitis	-9255
▁opportunities	-9256
▁parainfluenza	-9257
▁phenylalanine	-9258
▁predominantly	-9259
▁presentations	-9260
▁reintroducing	-9261
▁uncomplicated	-9262
longtermeffects	-9263
streptococcalph	-9264
▁aminoglycoside	-9265
▁arthrocentesis	-9266
▁chlorpromazine	-9267
▁cholesteatomas	-9268
▁fundoplication	-9269
▁hydrocortisone	-9270
▁microdebriders	-9271
▁paragangliomas	-9272
▁rhinomanometry	-9273
▁uncontrollable	-9274
▁antiperspirants	-9275
▁atherosclerosis	-9276
▁cytomegalovirus	-9277
▁differentiating	-9278
▁hyperthyroidism	-9279
▁microbiological	-9280
▁predispositions	-9281
▁supplementation	-9282
▁telangiectasias	-9283
▁tympanocentesis	-9284
bc	-9285
ahl	-9286
aus	-9287
cbc	-9288
crp	-9289
fav	-9290
hsv	-9291
liv	-9292
mbs	-9293
moe	-9294
nai	-9295
ozy	-9296
spg	-9297
ync	-9298
▁4%	-9299
-12	-9300
drl	-9301
ibs	-9302
▁40	-9303
▁7,	-9304
▁70	-9305
-25.	-9306
5-4%	-9307
appe	-9308
apse	-9309
asma	-9310
auty	-9311
azep	-9312
baha	-9313
chem	-9314
dend	-9315
espe	-9316
ffee	-9317
glue	-9318
iate	-9319
ipes	-9320
lish	-9321
lock	-9322
mark	-9323
mont	-9324
naud	-9325
nels	-9326
offs	-9327
oozy	-9328
oste	-9329
oxaz	-9330
pium	-9331
prag	-9332
prat	-9333
rame	-9334
slab	-9335
slad	-9336
sulf	-9337
thle	-9338
tong	-9339
umbo	-9340
unsh	-9341
vdrl	-9342
weez	-9343
wire	-9344
wise	-9345
▁**3	-9346
▁0.0	-9347
▁0.1	-9348
▁0.2	-9349
▁0.3	-9350
▁0.6	-9351
▁10.	-9352
▁20%	-9353
▁22,	-9354
▁25%	-9355
▁25.	-9356
▁3.5	-9357
▁30%	-9358
▁5-7	-9359
▁500	-9360
▁95%	-9361
▁arm	-9362
▁awa	-9363
▁cam	-9364
▁egg	-9365
▁era	-9366
▁fus	-9367
▁hib	-9368
▁hic	-9369
▁jej	-9370
▁jna	-9371
▁lav	-9372
▁map	-9373
▁oae	-9374
▁odd	-9375
▁paj	-9376
▁vng	-9377
0-60%	-9378
0-60.	-9379
accum	-9380
ached	-9381
aphyl	-9382
arous	-9383
athia	-9384
ausal	-9385
bilir	-9386
block	-9387
build	-9388
cardi	-9389
cetes	-9390
chers	-9391
cleft	-9392
degen	-9393
dende	-9394
dysph	-9395
emann	-9396
empty	-9397
ethop	-9398
faces	-9399
tep	-9400
-19.	-9401
ains	-9402
berc	-9403
berk	-9404
clen	-9405
clim	-9406
corn	-9407
cycl	-9408
kets	-9409
lebr	-9410
mors	-9411
vors	-9412
▁amo	-9413
ameth	-9414
angin	-9415
frame	-9416
green	-9417
hairy	-9418
icken	-9419
ilest	-9420
incre	-9421
irear	-9422
isdom	-9423
jugul	-9424
light	-9425
matos	-9426
notch	-9427
oephe	-9428
ohist	-9429
olume	-9430
olunt	-9431
olved	-9432
ophob	-9433
ouble	-9434
oxazo	-9435
oxins	-9436
plish	-9437
ready	-9438
rives	-9439
rosig	-9440
slaby	-9441
tongu	-9442
tooth	-9443
ubine	-9444
ugged	-9445
▁**2.	-9446
▁**3.	-9447
▁0.1-	-9448
▁0.2%	-9449
▁0.3%	-9450
▁1-4%	-9451
▁3-5%	-9452
▁3-6%	-9453
▁5000	-9454
▁6-10	-9455
▁6-12	-9456
▁8-10	-9457
▁90%,	-9458
▁90%.	-9459
▁aber	-9460
▁alto	-9461
▁apex	-9462
▁beha	-9463
▁bibs	-9464
▁biwe	-9465
▁boug	-9466
▁boun	-9467
▁cspg	-9468
▁cues	-9469
▁curi	-9470
▁dors	-9471
▁eats	-9472
▁eggs	-9473
▁fade	-9474
▁fats	-9475
▁gaps	-9476
▁gram	-9477
▁hund	-9478
▁legs	-9479
▁mumb	-9480
▁naso	-9481
▁newf	-9482
▁pred	-9483
▁rubb	-9484
▁sacc	-9485
▁sdhb	-9486
▁sdhc	-9487
▁sulf	-9488
▁true	-9489
▁twel	-9490
▁vemp	-9491
▁wipe	-9492
0-70%.	-9493
0-90%.	-9494
ankets	-9495
aragus	-9496
aratus	-9497
arched	-9498
armace	-9499
fix	-9500
oke	-9501
ona	-9502
tsd	-9503
ecre	-9504
life	-9505
mits	-9506
rial	-9507
▁eth	-9508
▁eya	-9509
condi	-9510
elift	-9511
esfix	-9512
iping	-9513
secre	-9514
upper	-9515
▁**1.	-9516
▁burn	-9517
▁caro	-9518
▁lock	-9519
▁pace	-9520
▁ptsd	-9521
▁sdhd	-9522
▁subm	-9523
arthin	-9524
bercul	-9525
biting	-9526
cardio	-9527
ceptor	-9528
contin	-9529
diazep	-9530
double	-9531
earbar	-9532
eograp	-9533
erates	-9534
ernels	-9535
hecked	-9536
herent	-9537
hidden	-9538
icardi	-9539
ightly	-9540
illops	-9541
imetry	-9542
insert	-9543
instru	-9544
iology	-9545
issnhl	-9546
iximab	-9547
lionic	-9548
lottic	-9549
ludwig	-9550
merase	-9551
mistry	-9552
naires	-9553
ofovir	-9554
ograph	-9555
olites	-9556
olones	-9557
onsils	-9558
ophleb	-9559
orales	-9560
osteal	-9561
oticed	-9562
oticus	-9563
pratro	-9564
preted	-9565
rapped	-9566
relief	-9567
rogens	-9568
sangin	-9569
septum	-9570
staped	-9571
sudden	-9572
sulcus	-9573
tently	-9574
tilled	-9575
toxins	-9576
trophy	-9577
ubinem	-9578
ucleic	-9579
usions	-9580
uximab	-9581
visual	-9582
volume	-9583
xycycl	-9584
yncope	-9585
▁2,000	-9586
▁40-60	-9587
▁5-15%	-9588
▁6,000	-9589
▁7,000	-9590
▁aberr	-9591
▁abrup	-9592
▁adjac	-9593
▁advoc	-9594
▁amoun	-9595
▁annoy	-9596
▁antig	-9597
▁appli	-9598
▁athle	-9599
cts	-9600
eph	-9601
oda	-9602
uce	-9603
▁oo	-9604
auce	-9605
cety	-9606
imer	-9607
otts	-9608
oudy	-9609
pris	-9610
rugs	-9611
tity	-9612
wied	-9613
▁aur	-9614
▁kel	-9615
▁spo	-9616
cetyl	-9617
irmer	-9618
oneph	-9619
ottsp	-9620
pitus	-9621
plate	-9622
▁neop	-9623
▁soda	-9624
▁solv	-9625
ctscan	-9626
heimer	-9627
ifting	-9628
irling	-9629
pottsp	-9630
▁audib	-9631
▁biwee	-9632
▁blame	-9633
▁blunt	-9634
▁calor	-9635
▁candy	-9636
▁cocon	-9637
▁coils	-9638
▁cross	-9639
▁crunc	-9640
▁curet	-9641
▁desir	-9642
▁dumbo	-9643
▁emoll	-9644
▁exert	-9645
▁fills	-9646
▁float	-9647
▁fusob	-9648
▁grind	-9649
▁groin	-9650
▁gunsh	-9651
▁hives	-9652
▁inatt	-9653
▁incus	-9654
▁jejun	-9655
▁knuck	-9656
▁latch	-9657
▁limbs	-9658
▁lockj	-9659
▁meats	-9660
▁merge	-9661
▁motil	-9662
▁newly	-9663
▁nicot	-9664
▁obser	-9665
▁offsp	-9666
▁ortho	-9667
▁pajam	-9668
▁paste	-9669
▁pause	-9670
▁peels	-9671
▁potts	-9672
▁punct	-9673
▁raise	-9674
▁recla	-9675
▁recru	-9676
▁revis	-9677
▁roles	-9678
▁scaly	-9679
▁shell	-9680
▁skele	-9681
▁slips	-9682
▁spoil	-9683
▁stahl	-9684
▁stopp	-9685
▁tears	-9686
▁teoae	-9687
▁thous	-9688
▁tript	-9689
▁unset	-9690
▁vehic	-9691
▁velve	-9692
▁vicin	-9693
▁visib	-9694
▁waste	-9695
▁wears	-9696
▁wipes	-9697
▁woozy	-9698
▁words	-9699
aze	-9700
bte	-9701
inf	-9702
itc	-9703
kel	-9704
phy	-9705
brow	-9706
ctal	-9707
fold	-9708
info	-9709
phys	-9710
phyx	-9711
trig	-9712
▁edn	-9713
phyxi	-9714
reach	-9715
reats	-9716
viral	-9717
▁arri	-9718
▁ednr	-9719
▁foll	-9720
▁gaze	-9721
▁refe	-9722
folded	-9723
gments	-9724
larged	-9725
tiated	-9726
▁drill	-9727
▁ednrb	-9728
▁moved	-9729
▁pinna	-9730
▁unfav	-9731
▁yogur	-9732
ackaged	-9733
alcohol	-9734
arousal	-9735
artment	-9736
atresia	-9737
attress	-9738
buildup	-9739
bulging	-9740
changes	-9741
cillops	-9742
climati	-9743
control	-9744
defined	-9745
entiven	-9746
epiglot	-9747
ethopri	-9748
eustach	-9749
ferring	-9750
glasses	-9751
glossus	-9752
glueear	-9753
gnathia	-9754
goiters	-9755
grommet	-9756
hancing	-9757
healthy	-9758
hingles	-9759
imental	-9760
iosteal	-9761
irearms	-9762
issible	-9763
ithromy	-9764
largedv	-9765
lebrate	-9766
lesauce	-9767
longing	-9768
managed	-9769
matosus	-9770
middlee	-9771
ochlear	-9772
odiazep	-9773
oephedr	-9774
ofdysph	-9775
orectal	-9776
oxazole	-9777
pecific	-9778
philiti	-9779
pointed	-9780
present	-9781
prognos	-9782
ptioned	-9783
quinone	-9784
racture	-9785
reauric	-9786
reciate	-9787
reduced	-9788
rometry	-9789
rophied	-9790
singing	-9791
thalmic	-9792
tometry	-9793
ualheal	-9794
uloneph	-9795
ulpting	-9796
ulsions	-9797
unately	-9798
usually	-9799
ami	-9800
cof	-9801
imp	-9802
oft	-9803
▁45	-9804
akes	-9805
orax	-9806
real	-9807
veon	-9808
▁kic	-9809
▁myx	-9810
▁rid	-9811
edema	-9812
etics	-9813
fiers	-9814
lived	-9815
mpits	-9816
ravit	-9817
umami	-9818
▁arth	-9819
▁inte	-9820
▁load	-9821
▁peel	-9822
▁tcof	-9823
enital	-9824
erging	-9825
impact	-9826
isible	-9827
▁actor	-9828
▁choke	-9829
▁intol	-9830
▁kicks	-9831
▁oddly	-9832
▁potat	-9833
▁react	-9834
▁retin	-9835
▁snare	-9836
▁umami	-9837
▁wakes	-9838
emetics	-9839
entally	-9840
ophobia	-9841
othorax	-9842
rectomy	-9843
veonown	-9844
vertigo	-9845
vidence	-9846
warthin	-9847
weezers	-9848
▁0.5-4%	-9849
▁14-25.	-9850
▁40-60.	-9851
▁50-60%	-9852
▁acetyl	-9853
▁angled	-9854
▁annual	-9855
▁antihe	-9856
▁antros	-9857
▁apneas	-9858
▁appeal	-9859
▁aromas	-9860
▁arthri	-9861
▁baking	-9862
▁batter	-9863
▁beauty	-9864
▁bleeds	-9865
▁bottom	-9866
▁bougie	-9867
▁boxing	-9868
▁budget	-9869
▁bursts	-9870
▁capill	-9871
▁cloudy	-9872
▁coffee	-9873
▁colors	-9874
▁corona	-9875
▁counts	-9876
▁creamy	-9877
▁cyberk	-9878
▁dampen	-9879
▁deepen	-9880
▁defend	-9881
▁diplop	-9882
▁dorsum	-9883
▁dosing	-9884
▁drills	-9885
▁droopy	-9886
▁easing	-9887
▁emboli	-9888
▁enucle	-9889
▁epithe	-9890
▁excruc	-9891
▁exhale	-9892
▁fibers	-9893
▁firmer	-9894
▁fluoro	-9895
▁forces	-9896
▁fundus	-9897
▁glomer	-9898
▁glotic	-9899
emb	-9900
etd	-9901
pet	-9902
abap	-9903
acet	-9904
ifid	-9905
need	-9906
otia	-9907
otra	-9908
smit	-9909
with	-9910
embol	-9911
force	-9912
inous	-9913
kwith	-9914
meric	-9915
ously	-9916
redom	-9917
reous	-9918
ringe	-9919
tives	-9920
▁balm	-9921
▁benz	-9922
▁dive	-9923
▁gluc	-9924
▁unsu	-9925
anging	-9926
ansing	-9927
ansion	-9928
arable	-9929
atable	-9930
iating	-9931
itable	-9932
needed	-9933
otraum	-9934
predom	-9935
ptotia	-9936
rances	-9937
▁bifid	-9938
▁cater	-9939
▁gabap	-9940
▁impul	-9941
▁outwe	-9942
armaceu	-9943
atinous	-9944
herence	-9945
merican	-9946
reading	-9947
smitter	-9948
▁collar	-9949
▁disequ	-9950
▁dulled	-9951
▁enable	-9952
▁gravel	-9953
▁gravis	-9954
▁hinder	-9955
▁hyperf	-9956
▁imposs	-9957
▁iodide	-9958
▁issnhl	-9959
▁keloid	-9960
▁latent	-9961
▁learns	-9962
▁lights	-9963
▁linger	-9964
▁marked	-9965
▁matter	-9966
▁memory	-9967
▁milder	-9968
▁milest	-9969
▁multit	-9970
▁myocut	-9971
▁myself	-9972
▁nickel	-9973
▁observ	-9974
▁onesel	-9975
▁onions	-9976
▁overac	-9977
▁pacing	-9978
▁parent	-9979
▁pieces	-9980
▁pimple	-9981
▁points	-9982
▁policy	-9983
▁potato	-9984
▁predic	-9985
▁premat	-9986
▁provoc	-9987
▁psychi	-9988
▁ptosis	-9989
▁purely	-9990
▁purifi	-9991
▁radius	-9992
▁redist	-9993
▁referr	-9994
▁remedi	-9995
▁repres	-9996
▁rewire	-9997
▁rotate	-9998
▁safest	-9999
eli	-10000
chal	-10001
hops	-10002
lack	-10003
medi	-10004
stap	-10005
ulpt	-10006
▁lot	-10007
▁web	-10008
agers	-10009
amina	-10010
antly	-10011
apter	-10012
dates	-10013
eliac	-10014
harge	-10015
inked	-10016
ulary	-10017
▁coag	-10018
▁ribc	-10019
▁shot	-10020
▁visc	-10021
ilizes	-10022
linked	-10023
ometer	-10024
placed	-10025
ribute	-10026
▁class	-10027
▁droop	-10028
▁grown	-10029
▁month	-10030
▁orbit	-10031
▁panic	-10032
▁teach	-10033
▁woken	-10034
▁worry	-10035
abulary	-10036
ffusion	-10037
mediast	-10038
rasping	-10039
ravaged	-10040
scoring	-10041
tainers	-10042
▁attrac	-10043
▁celiac	-10044
▁exerts	-10045
▁intern	-10046
▁noting	-10047
▁sculpt	-10048
▁scutum	-10049
▁sealed	-10050
▁semont	-10051
▁serves	-10052
▁shifts	-10053
▁shrugs	-10054
▁sialag	-10055
▁smelly	-10056
▁smoker	-10057
▁sneeze	-10058
▁snorts	-10059
▁snuffl	-10060
▁speeds	-10061
▁spices	-10062
▁states	-10063
▁statis	-10064
▁stings	-10065
▁styles	-10066
▁subper	-10067
▁suffic	-10068
▁sugges	-10069
▁sulfur	-10070
▁swells	-10071
▁switch	-10072
▁thromb	-10073
▁timing	-10074
▁toward	-10075
▁towels	-10076
▁transf	-10077
▁trials	-10078
▁twelve	-10079
▁united	-10080
▁urgent	-10081
▁useful	-10082
▁verify	-10083
▁volati	-10084
▁washes	-10085
▁waters	-10086
▁weaker	-10087
▁wearer	-10088
▁wiping	-10089
▁wisdom	-10090
▁yields	-10091
▁yogurt	-10092
acterium	-10093
affected	-10094
asticity	-10095
atically	-10096
blockers	-10097
cessible	-10098
chemical	-10099
/.	-10100
cyc	-10101
pox	-10102
ube	-10103
zes	-10104
▁25	-10105
cong	-10106
ecom	-10107
indr	-10108
ocks	-10109
ptic	-10110
ucks	-10111
becom	-10112
enoph	-10113
icone	-10114
othes	-10115
rases	-10116
rhino	-10117
state	-10118
tumor	-10119
vious	-10120
yloid	-10121
▁airy	-10122
▁beta	-10123
▁bigg	-10124
▁dyes	-10125
▁enth	-10126
▁fair	-10127
▁fric	-10128
▁none	-10129
▁sewn	-10130
▁tele	-10131
▁vers	-10132
acking	-10133
antube	-10134
asthen	-10135
astric	-10136
ecules	-10137
ouring	-10138
septic	-10139
stumor	-10140
turing	-10141
unches	-10142
▁genio	-10143
▁hindr	-10144
▁phone	-10145
▁regen	-10146
▁seeks	-10147
▁sweet	-10148
▁tucks	-10149
becomes	-10150
choline	-10151
cycling	-10152
flaging	-10153
iantube	-10154
illocks	-10155
terious	-10156
ulative	-10157
▁bigger	-10158
▁enthus	-10159
▁events	-10160
▁fairly	-10161
▁rising	-10162
▁suprag	-10163
▁versus	-10164
asthenia	-10165
choleste	-10166
clearing	-10167
climatiz	-10168
ectivity	-10169
espeople	-10170
existing	-10171
fistulas	-10172
fracture	-10173
hemistry	-10174
ickenpox	-10175
involunt	-10176
irometry	-10177
ituximab	-10178
lemental	-10179
menieres	-10180
ogenesis	-10181
olecules	-10182
osterone	-10183
otraumap	-10184
oviruses	-10185
owerment	-10186
packaged	-10187
philitic	-10188
physical	-10189
preauric	-10190
resolved	-10191
rolarynx	-10192
slightly	-10193
specific	-10194
spitting	-10195
staining	-10196
stenosis	-10197
suddende	-10198
titative	-10199
bee	-10200
gon	-10201
▁11	-10202
food	-10203
haps	-10204
ilia	-10205
ints	-10206
oons	-10207
tons	-10208
ysms	-10209
▁dab	-10210
▁hue	-10211
▁moe	-10212
▁soj	-10213
ermal	-10214
ighed	-10215
swall	-10216
ynbee	-10217
▁blur	-10218
▁dogs	-10219
▁hunc	-10220
▁mort	-10221
▁smad	-10222
▁sojs	-10223
▁want	-10224
amatic	-10225
orting	-10226
perich	-10227
reflux	-10228
teract	-10229
tonsil	-10230
urysms	-10231
▁agony	-10232
▁blend	-10233
▁cilia	-10234
▁fault	-10235
▁image	-10236
▁mints	-10237
▁overt	-10238
▁phant	-10239
▁stead	-10240
eurysms	-10241
odermal	-10242
rophies	-10243
swallow	-10244
▁faulty	-10245
▁mortal	-10246
▁sojson	-10247
▁steady	-10248
cyanosis	-10249
entioned	-10250
ubinemia	-10251
ulopathy	-10252
ulsatile	-10253
urations	-10254
xualheal	-10255
▁250,000	-10256
▁50-70%.	-10257
▁60-90%.	-10258
▁70-90%,	-10259
▁80-95%.	-10260
▁85-90%,	-10261
▁90-95%.	-10262
▁acidity	-10263
▁adopted	-10264
▁aligned	-10265
▁already	-10266
▁amyloid	-10267
▁anaphyl	-10268
▁antihel	-10269
▁arising	-10270
▁armpits	-10271
▁assists	-10272
▁beating	-10273
▁beneath	-10274
▁borders	-10275
▁calcify	-10276
▁calming	-10277
▁caloric	-10278
▁capping	-10279
▁carried	-10280
▁chapter	-10281
▁coconut	-10282
▁concept	-10283
▁conchal	-10284
▁consent	-10285
▁contour	-10286
▁corners	-10287
▁costoch	-10288
▁courage	-10289
▁craters	-10290
▁crunchy	-10291
▁crusted	-10292
▁curable	-10293
▁curette	-10294
▁dangers	-10295
▁decline	-10296
▁defined	-10297
▁deflate	-10298
▁denture	-10299
.5	-10300
vr	-10301
abi	-10302
cic	-10303
esk	-10304
iic	-10305
uts	-10306
vrl	-10307
▁4.	-10308
dose	-10309
esky	-10310
iast	-10311
odys	-10312
pain	-10313
rene	-10314
ycho	-10315
▁4.3	-10316
▁7.5	-10317
▁cas	-10318
▁mys	-10319
▁pax	-10320
aller	-10321
ancer	-10322
covid	-10323
enign	-10324
holds	-10325
iasts	-10326
lycer	-10327
umble	-10328
▁feed	-10329
▁nuts	-10330
▁tell	-10331
▁ties	-10332
benign	-10333
psycho	-10334
ptosis	-10335
ucking	-10336
▁acvrl	-10337
▁bodys	-10338
▁chain	-10339
▁cours	-10340
▁dilat	-10341
▁feeds	-10342
▁overc	-10343
▁pesky	-10344
▁score	-10345
▁tough	-10346
▁tying	-10347
▁warty	-10348
abscess	-10349
ecancer	-10350
imaging	-10351
lycerin	-10352
sucking	-10353
▁12,000	-10354
▁casual	-10355
▁compan	-10356
▁curios	-10357
▁folded	-10358
▁hollow	-10359
▁leftov	-10360
▁mumble	-10361
▁taller	-10362
▁tracts	-10363
▁unster	-10364
effusion	-10365
ethoprim	-10366
resholds	-10367
tainment	-10368
▁company	-10369
▁courses	-10370
▁deserve	-10371
▁dilated	-10372
▁dioxide	-10373
▁disappe	-10374
▁dislodg	-10375
▁dressed	-10376
▁earlobe	-10377
▁employe	-10378
▁endemic	-10379
▁escapes	-10380
▁ethical	-10381
▁eyebrow	-10382
▁feature	-10383
▁flaking	-10384
▁flashes	-10385
▁fluores	-10386
▁freezes	-10387
▁freshly	-10388
▁fullest	-10389
▁genders	-10390
▁geograp	-10391
▁glucose	-10392
▁grading	-10393
▁hacking	-10394
▁hanging	-10395
▁hundred	-10396
▁hunting	-10397
▁impulse	-10398
▁inadver	-10399
hot	-10400
icu	-10401
▁#{	-10402
alis	-10403
date	-10404
flav	-10405
laup	-10406
oles	-10407
onge	-10408
utom	-10409
▁afs	-10410
▁fro	-10411
▁lop	-10412
opens	-10413
rongs	-10414
tomps	-10415
ughed	-10416
urity	-10417
▁80%.	-10418
▁adul	-10419
▁cess	-10420
▁nail	-10421
▁prom	-10422
▁spot	-10423
▁sway	-10424
action	-10425
enting	-10426
fferen	-10427
flavor	-10428
mtomps	-10429
torial	-10430
▁autom	-10431
▁hears	-10432
▁holes	-10433
▁humor	-10434
▁incon	-10435
▁induc	-10436
▁peers	-10437
inflate	-10438
ondrium	-10439
▁adulth	-10440
▁frothy	-10441
▁mucoly	-10442
▁prongs	-10443
▁senses	-10444
▁sponge	-10445
▁weekly	-10446
▁actions	-10447
▁coughed	-10448
▁earwear	-10449
▁induces	-10450
▁ineffec	-10451
▁inflamm	-10452
▁inflate	-10453
▁interpl	-10454
▁invaded	-10455
▁invades	-10456
▁ipratro	-10457
▁journal	-10458
▁kernels	-10459
▁lighten	-10460
▁lightly	-10461
▁loading	-10462
▁lockjaw	-10463
▁ludwigs	-10464
▁melasma	-10465
▁menstru	-10466
▁microti	-10467
▁midline	-10468
▁molding	-10469
▁mucormy	-10470
▁nothing	-10471
▁nucleic	-10472
▁obvious	-10473
▁oneself	-10474
▁optical	-10475
▁organiz	-10476
▁ossicul	-10477
▁pajamas	-10478
▁peeling	-10479
▁perhaps	-10480
▁petrous	-10481
▁phrases	-10482
▁pigment	-10483
▁pinning	-10484
▁plugged	-10485
▁popcorn	-10486
▁popular	-10487
▁pressed	-10488
▁probing	-10489
▁pronunc	-10490
▁protein	-10491
▁provoke	-10492
▁punches	-10493
▁queries	-10494
▁quietly	-10495
▁raynaud	-10496
▁reaccum	-10497
▁reaches	-10498
▁reclaim	-10499
ba	-10500
bah	-10501
iol	-10502
rus	-10503
tot	-10504
ude	-10505
adic	-10506
cein	-10507
ests	-10508
flec	-10509
gate	-10510
mets	-10511
rein	-10512
▁3-7	-10513
▁dye	-10514
▁hen	-10515
▁san	-10516
▁sev	-10517
bahas	-10518
clear	-10519
hyper	-10520
itrus	-10521
noisy	-10522
total	-10523
▁0.6%	-10524
▁bugs	-10525
▁hood	-10526
▁late	-10527
▁meat	-10528
▁roll	-10529
▁velo	-10530
▁viol	-10531
▁wean	-10532
bluish	-10533
fibrom	-10534
fungal	-10535
ocking	-10536
urated	-10537
viding	-10538
▁hence	-10539
▁radic	-10540
▁split	-10541
▁tinge	-10542
itigate	-10543
rations	-10544
▁60-70%	-10545
▁bounce	-10546
▁citrus	-10547
▁incess	-10548
▁invade	-10549
▁locked	-10550
▁reflec	-10551
▁season	-10552
▁sevent	-10553
rinthine	-10554
stations	-10555
▁carotid	-10556
▁dieting	-10557
▁helmets	-10558
▁largest	-10559
▁measles	-10560
▁photore	-10561
▁redirec	-10562
▁refills	-10563
▁relapse	-10564
▁relaxed	-10565
▁relying	-10566
▁reopens	-10567
▁residue	-10568
▁restruc	-10569
▁returns	-10570
▁ribcage	-10571
▁rounded	-10572
▁saccule	-10573
▁scaling	-10574
▁schools	-10575
▁scraped	-10576
▁seventh	-10577
▁shampoo	-10578
▁shelves	-10579
▁shorten	-10580
▁showers	-10581
▁signify	-10582
▁softest	-10583
▁soothes	-10584
▁sparing	-10585
▁spastic	-10586
▁spoiled	-10587
▁sprayed	-10588
▁staging	-10589
▁stamina	-10590
▁started	-10591
▁startle	-10592
▁stiffen	-10593
▁stopped	-10594
▁strokes	-10595
▁subling	-10596
▁surpris	-10597
▁sutured	-10598
▁swaying	-10599
},	-10600
0.9	-10601
adi	-10602
eud	-10603
▁4-	-10604
0.9%	-10605
cric	-10606
iary	-10607
mier	-10608
mist	-10609
qual	-10610
▁4-9	-10611
▁alz	-10612
▁lie	-10613
▁soc	-10614
▁spp	-10615
▁voc	-10616
adily	-10617
aqued	-10618
dibly	-10619
icles	-10620
ittle	-10621
pseud	-10622
stent	-10623
▁5-14	-10624
▁inac	-10625
▁said	-10626
▁ther	-10627
iliary	-10628
lemier	-10629
liness	-10630
▁diary	-10631
▁drier	-10632
▁foram	-10633
▁moody	-10634
▁mucor	-10635
▁thins	-10636
ductive	-10637
ohistoc	-10638
options	-10639
ulators	-10640
▁40-60)	-10641
▁biweek	-10642
▁decide	-10643
▁lifted	-10644
▁limits	-10645
▁little	-10646
▁seated	-10647
aretumor	-10648
ociliary	-10649
uflaging	-10650
▁crackle	-10651
▁enjoyed	-10652
▁foramen	-10653
▁phenyle	-10654
▁readily	-10655
▁swiftly	-10656
▁syringe	-10657
▁teenage	-10658
▁tendons	-10659
▁thermal	-10660
▁thicken	-10661
▁threats	-10662
▁thrives	-10663
▁tightly	-10664
▁touches	-10665
▁toynbee	-10666
▁travels	-10667
▁tremors	-10668
▁updates	-10669
▁urinary	-10670
▁vehicle	-10671
▁velvety	-10672
▁viewing	-10673
▁visibly	-10674
▁wasting	-10675
▁weaning	-10676
▁wetness	-10677
▁workers	-10678
▁worried	-10679
▁wrapped	-10680
▁yielded	-10681
abdominal	-10682
aqueducts	-10683
assurance	-10684
attention	-10685
attresses	-10686
blindness	-10687
cillopsia	-10688
cleftcyst	-10689
clenching	-10690
condition	-10691
direction	-10692
dysgeusia	-10693
earinflam	-10694
ectoralis	-10695
ectorants	-10696
enhancing	-10697
estibular	-10698
factorial	-10699
qs	-10700
yp	-10701
bms	-10702
low	-10703
mun	-10704
sea	-10705
dium	-10706
enom	-10707
ited	-10708
kill	-10709
kine	-10710
lyte	-10711
oids	-10712
ypes	-10713
▁10%	-10714
▁cid	-10715
anium	-10716
arter	-10717
axill	-10718
ended	-10719
feron	-10720
naats	-10721
qsart	-10722
▁cage	-10723
▁ling	-10724
▁rect	-10725
commun	-10726
maxill	-10727
oramic	-10728
sodium	-10729
▁certi	-10730
▁dried	-10731
▁dusty	-10732
▁never	-10733
▁rooms	-10734
▁stems	-10735
▁turns	-10736
▁venom	-10737
itanium	-10738
killers	-10739
thalmos	-10740
▁bowing	-10741
▁flight	-10742
▁fright	-10743
▁holder	-10744
▁irises	-10745
▁lavage	-10746
▁rectum	-10747
▁resect	-10748
▁rotten	-10749
▁treats	-10750
kinetics	-10751
▁arrival	-10752
▁bumping	-10753
▁conceal	-10754
▁deplete	-10755
▁gastric	-10756
▁jejunal	-10757
▁labored	-10758
▁lingual	-10759
▁myotomy	-10760
▁palates	-10761
▁rubbery	-10762
▁spinach	-10763
▁thinner	-10764
▁whisper	-10765
forcement	-10766
glottidis	-10767
halitosis	-10768
hargeable	-10769
ibilities	-10770
icarditis	-10771
increased	-10772
infection	-10773
inflating	-10774
intensity	-10775
interpret	-10776
laryngeal	-10777
maxillary	-10778
medicated	-10779
menierest	-10780
occurring	-10781
oftonsils	-10782
ouflaging	-10783
paralysis	-10784
parotitis	-10785
phyxiants	-10786
prognosis	-10787
pulsatile	-10788
qualified	-10789
ravitreal	-10790
rehension	-10791
revention	-10792
ronicrhin	-10793
rosigmoid	-10794
secretion	-10795
sensitive	-10796
stapesfix	-10797
sulfameth	-10798
syndromes	-10799
!.	-10800
6,	-10801
hs	-10802
rm	-10803
itf	-10804
▁19	-10805
▁ok	-10806
hsat	-10807
▁197	-10808
▁den	-10809
▁elf	-10810
▁fna	-10811
▁kit	-10812
▁led	-10813
▁rpr	-10814
▁som	-10815
▁tag	-10816
entin	-10817
▁disk	-10818
▁draw	-10819
▁fees	-10820
▁mitf	-10821
▁must	-10822
▁peak	-10823
▁snap	-10824
▁symp	-10825
▁vcan	-10826
annual	-10827
▁click	-10828
▁forth	-10829
▁lumpy	-10830
▁probe	-10831
▁straw	-10832
▁trace	-10833
▁waver	-10834
ination	-10835
opening	-10836
setting	-10837
▁injure	-10838
▁mature	-10839
▁mouths	-10840
▁scales	-10841
▁sympat	-10842
▁200,000	-10843
▁amounts	-10844
▁anterol	-10845
▁detects	-10846
▁deviate	-10847
▁imposed	-10848
▁infrate	-10849
▁septums	-10850
▁yogurts	-10851
enlargedv	-10852
translaby	-10853
triggered	-10854
uffytumor	-10855
ularsinus	-10856
upperresp	-10857
wiedemann	-10858
xycycline	-10859
▁0.1-0.9%	-10860
▁aberrant	-10861
▁adjacent	-10862
▁advocate	-10863
▁aeration	-10864
▁aligners	-10865
▁american	-10866
▁analyzed	-10867
▁androgen	-10868
▁answered	-10869
▁antigens	-10870
▁arterial	-10871
▁athletes	-10872
▁attaches	-10873
▁attempts	-10874
▁aviation	-10875
▁awaiting	-10876
▁balloons	-10877
▁bandaged	-10878
▁baseline	-10879
▁battling	-10880
▁beckwith	-10881
▁behaving	-10882
▁behavior	-10883
▁beverage	-10884
▁biopsied	-10885
▁biweekly	-10886
▁blankets	-10887
▁blurring	-10888
▁capillar	-10889
▁cerebral	-10890
▁chapping	-10891
▁clusters	-10892
▁coloring	-10893
▁composed	-10894
▁computed	-10895
▁confined	-10896
▁confirms	-10897
▁confused	-10898
▁contract	-10899
);	-10900
1:	-10901
fa	-10902
md	-10903
rfa	-10904
tmd	-10905
uri	-10906
xon	-10907
▁ii	-10908
▁tm	-10909
avms	-10910
omat	-10911
▁12%	-10912
acies	-10913
blood	-10914
▁0.5%	-10915
▁apps	-10916
▁axon	-10917
▁gush	-10918
▁held	-10919
▁ions	-10920
▁lelc	-10921
▁lens	-10922
ascher	-10923
▁0.05%	-10924
▁brush	-10925
▁coach	-10926
▁loads	-10927
▁proud	-10928
▁sinks	-10929
▁style	-10930
▁abrupt	-10931
▁abused	-10932
▁clench	-10933
▁foster	-10934
▁helped	-10935
▁meatus	-10936
▁oozing	-10937
▁refine	-10938
▁unfort	-10939
▁yearly	-10940
▁cooling	-10941
▁enzymes	-10942
▁inhales	-10943
▁pointed	-10944
▁shrinks	-10945
▁viscous	-10946
producing	-10947
▁crepitus	-10948
▁cultured	-10949
▁daunting	-10950
▁decaying	-10951
▁defenses	-10952
▁deflates	-10953
▁dentures	-10954
▁destroys	-10955
▁dilating	-10956
▁diligent	-10957
▁diminish	-10958
▁diplopia	-10959
▁dissatis	-10960
▁distorts	-10961
▁distract	-10962
▁dividing	-10963
▁downtime	-10964
▁dramatic	-10965
▁dropping	-10966
▁dystonia	-10967
▁earlobes	-10968
▁earmolds	-10969
▁educated	-10970
▁emerging	-10971
▁empowers	-10972
▁episodic	-10973
▁erythema	-10974
▁evidence	-10975
▁exchange	-10976
▁extracts	-10977
▁extremes	-10978
▁eyesight	-10979
▁facelift	-10980
▁fillings	-10981
▁firearms	-10982
▁fittings	-10983
▁floating	-10984
▁forelock	-10985
▁glycerin	-10986
▁grasping	-10987
▁gravelly	-10988
▁gunshots	-10989
▁hairline	-10990
▁hallmark	-10991
▁handling	-10992
▁hardware	-10993
▁hillocks	-10994
▁honestly	-10995
▁hunching	-10996
▁inducing	-10997
▁inherent	-10998
▁inhibits	-10999
▁injuring	-11000
▁interest	-11001
▁invasion	-11002
▁inwardly	-11003
▁keywords	-11004
▁knuckles	-11005
▁landings	-11006
▁leftover	-11007
▁lifelong	-11008
▁lifetime	-11009
▁localize	-11010
▁majority	-11011
▁meantime	-11012
▁measured	-11013
▁mitigate	-11014
▁motility	-11015
▁moveable	-11016
▁mumbling	-11017
▁myxedema	-11018
▁neoprene	-11019
▁neuroect	-11020
▁newfound	-11021
▁nicotine	-11022
▁normalcy	-11023
▁observed	-11024
▁occupies	-11025
▁ointment	-11026
▁original	-11027
▁osteomas	-11028
▁overload	-11029
▁paralyze	-11030
▁postural	-11031
▁pulsates	-11032
▁purifier	-11033
▁purplish	-11034
▁quantity	-11035
▁reactive	-11036
▁realized	-11037
▁reassure	-11038
▁receding	-11039
▁recently	-11040
▁recessed	-11041
▁recovers	-11042
▁reducers	-11043
▁regained	-11044
▁reinsert	-11045
▁relaxing	-11046
▁reliable	-11047
▁relieves	-11048
▁remedied	-11049
▁requests	-11050
▁reversal	-11051
▁reviewed	-11052
▁scalding	-11053
▁scalpels	-11054
▁sedative	-11055
▁segments	-11056
▁shifting	-11057
▁shingles	-11058
▁shunting	-11059
▁silicone	-11060
▁skeleton	-11061
▁smelling	-11062
▁snapping	-11063
▁snorting	-11064
▁snuffles	-11065
▁socially	-11066
▁software	-11067
▁solvents	-11068
▁spelling	-11069
▁staining	-11070
▁stemming	-11071
▁stickier	-11072
▁stitched	-11073
▁stocking	-11074
▁stressed	-11075
▁stronger	-11076
▁studying	-11077
▁sunlight	-11078
▁surfaces	-11079
▁swabbing	-11080
▁symtomps	-11081
▁tailbone	-11082
▁teething	-11083
▁textured	-11084
▁thickens	-11085
▁thinking	-11086
▁thoughts	-11087
▁ticklish	-11088
▁tightens	-11089
▁titanium	-11090
▁tracking	-11091
▁traveled	-11092
▁triptans	-11093
▁tubercul	-11094
▁tweezers	-11095
▁unlikely	-11096
▁upcoming	-11097
▁variable	-11098
▁vertical	-11099
▁vicinity	-11100
▁violence	-11101
▁vitreous	-11102
▁volatile	-11103
▁watching	-11104
▁wavering	-11105
▁wearable	-11106
▁whirling	-11107
▁whispers	-11108
▁wrestler	-11109
areffusion	-11110
audiograms	-11111
changeably	-11112
coalescent	-11113
congenital	-11114
continuous	-11115
entiveness	-11116
especially	-11117
functional	-11118
hereditary	-11119
idiopathic	-11120
ithromycin	-11121
lexibility	-11122
oephedrine	-11123
ophlebitis	-11124
oscleromat	-11125
pharyngeal	-11126
polymerase	-11127
psychotics	-11128
quinolones	-11129
ravagedear	-11130
resolution	-11131
retraction	-11132
rhinorrhea	-11133
sexualheal	-11134
treatments	-11135
understood	-11136
▁1,000,000	-11137
▁absorbent	-11138
▁according	-11139
▁additives	-11140
▁adulthood	-11141
▁alertness	-11142
▁allergist	-11143
▁alzheimer	-11144
▁analyzing	-11145
▁androgens	-11146
▁aneurysms	-11147
▁annoyance	-11148
▁apparatus	-11149
▁appearing	-11150
▁appliance	-11151
▁arthritic	-11152
▁asparagus	-11153
▁assurance	-11154
▁attitudes	-11155
▁attracted	-11156
▁avulsions	-11157
▁batteries	-11158
▁belonging	-11159
▁bluetooth	-11160
▁captioned	-11161
▁cataracts	-11162
▁cauterize	-11163
▁celebrate	-11164
▁cessation	-11165
▁challenge	-11166
▁cidofovir	-11167
▁cleansing	-11168
▁coherence	-11169
▁collision	-11170
▁community	-11171
▁complains	-11172
▁continued	-11173
▁contracts	-11174
▁countries	-11175
▁cryptotia	-11176
▁culturing	-11177
▁curiosity	-11178
▁darkening	-11179
▁depressed	-11180
▁desirable	-11181
▁differing	-11182
▁diligence	-11183
▁distilled	-11184
▁disturbed	-11185
▁dosimetry	-11186
▁downwards	-11187
▁durations	-11188
▁educators	-11189
▁effusions	-11190
▁employees	-11191
▁empowered	-11192
▁equalizes	-11193
▁execution	-11194
▁existence	-11195
▁expansion	-11196
▁expelling	-11197
▁extending	-11198
▁extension	-11199
▁filtering	-11200
▁flattened	-11201
▁follicles	-11202
▁footplate	-11203
▁fragments	-11204
▁gonorrhea	-11205
▁gratitude	-11206
▁guarantee	-11207
▁happiness	-11208
▁impactful	-11209
▁impaction	-11210
▁impairing	-11211
▁incessant	-11212
▁indicator	-11213
▁induction	-11214
▁inflation	-11215
▁initiated	-11216
▁instantly	-11217
▁interplay	-11218
▁invisible	-11219
▁lubricant	-11220
▁magnified	-11221
▁mentioned	-11222
▁misplaced	-11223
▁modifiers	-11224
▁moistened	-11225
▁molecules	-11226
▁mortality	-11227
▁mucorales	-11228
▁multitude	-11229
▁myoepithe	-11230
▁neurology	-11231
▁neurotran	-11232
▁observing	-11233
▁obtaining	-11234
▁obturator	-11235
▁offspring	-11236
▁operation	-11237
▁optimally	-11238
▁organisms	-11239
▁otherwise	-11240
▁overwhelm	-11241
▁packaging	-11242
▁panoramic	-11243
▁pharmaceu	-11244
▁physicist	-11245
▁preserves	-11246
▁promising	-11247
▁proptosis	-11248
▁protocols	-11249
▁realigned	-11250
▁recession	-11251
▁recipient	-11252
▁reconnect	-11253
▁referrals	-11254
▁referring	-11255
▁reflexive	-11256
▁removable	-11257
▁repeating	-11258
▁reproduce	-11259
▁resonates	-11260
▁retainers	-11261
▁retinoids	-11262
▁revisited	-11263
▁rituximab	-11264
▁rotations	-11265
▁saturated	-11266
▁scratched	-11267
▁sculpting	-11268
▁sedatives	-11269
▁selective	-11270
▁seriously	-11271
▁serologic	-11272
▁shrinkage	-11273
▁signaling	-11274
▁similarly	-11275
▁smoothies	-11276
▁sojsonres	-11277
▁standards	-11278
▁stitching	-11279
▁struggled	-11280
▁sudomotor	-11281
▁survivors	-11282
▁suspicion	-11283
▁swellings	-11284
▁syndromic	-11285
▁syringing	-11286
▁teenagers	-11287
▁therefore	-11288
▁thousands	-11289
▁threading	-11290
▁timeframe	-11291
▁tiredness	-11292
▁topically	-11293
▁transfers	-11294
▁trembling	-11295
▁unchecked	-11296
▁unmanaged	-11297
▁unnoticed	-11298
▁variation	-11299
▁workshops	-11300
▁wrestling	-11301
accumulates	-11302
barotraumap	-11303
chronicrhin	-11304
hypertrophy	-11305
instruments	-11306
involuntary	-11307
laryngealob	-11308
laryngocele	-11309
mediastinum	-11310
odiazepines	-11311
ofdysphagia	-11312
operatively	-11313
pleomorphic	-11314
septoplasty	-11315
tracheotomy	-11316
ulocochlear	-11317
▁absorption	-11318
▁abstaining	-11319
▁acclimatiz	-11320
▁afterwards	-11321
▁allergists	-11322
▁alleviated	-11323
▁alteration	-11324
▁altogether	-11325
▁amplifiers	-11326
▁antiseptic	-11327
▁antrostomy	-11328
▁applesauce	-11329
▁appreciate	-11330
▁approached	-11331
▁articulate	-11332
▁aspirating	-11333
▁attractive	-11334
▁audibility	-11335
▁augmenting	-11336
▁benefitted	-11337
▁blistering	-11338
▁breastbone	-11339
▁categories	-11340
▁chickenpox	-11341
▁cigarettes	-11342
▁classified	-11343
▁collapsing	-11344
▁collarbone	-11345
▁colorectal	-11346
▁comparable	-11347
▁complicate	-11348
▁compressed	-11349
▁continuing	-11350
▁contouring	-11351
▁contracted	-11352
▁contusions	-11353
▁conversion	-11354
▁coordinate	-11355
▁counteract	-11356
▁cyberknife	-11357
▁department	-11358
▁dependence	-11359
▁deposition	-11360
▁descending	-11361
▁dietitians	-11362
▁dilatation	-11363
▁diminishes	-11364
▁disability	-11365
▁dislocated	-11366
▁dissection	-11367
▁documented	-11368
▁downsizing	-11369
▁efficiency	-11370
▁elasticity	-11371
▁emollients	-11372
▁emphasizes	-11373
▁encourages	-11374
▁epithelial	-11375
▁eradicated	-11376
▁ergonomics	-11377
▁everything	-11378
▁excellence	-11379
▁exhalation	-11380
▁expressive	-11381
▁extraction	-11382
▁eyeglasses	-11383
▁fragrances	-11384
▁frictional	-11385
▁gabapentin	-11386
▁gelatinous	-11387
▁geneticist	-11388
▁geographic	-11389
▁hemostasis	-11390
▁hemostatic	-11391
▁hindrances	-11392
▁hyperbilir	-11393
▁immobility	-11394
▁implicated	-11395
▁impossible	-11396
▁incredibly	-11397
▁industrial	-11398
▁inflatable	-11399
▁infliximab	-11400
▁inhibiting	-11401
▁initiation	-11402
▁injectable	-11403
▁inspecting	-11404
▁interaural	-11405
▁interferon	-11406
▁internally	-11407
▁irrigating	-11408
▁lifestyles	-11409
▁manipulate	-11410
▁mattresses	-11411
▁meaningful	-11412
▁membranous	-11413
▁menopausal	-11414
▁metastatic	-11415
▁microscopy	-11416
▁milestones	-11417
▁moderation	-11418
▁mucolytics	-11419
▁myasthenia	-11420
▁mysterious	-11421
▁neurodegen	-11422
▁neutralize	-11423
▁obturators	-11424
▁ophthalmic	-11425
▁otological	-11426
▁outweighed	-11427
▁overcoming	-11428
▁paralyzing	-11429
▁pathologic	-11430
▁pectoralis	-11431
▁permanency	-11432
▁phantosmia	-11433
▁physiology	-11434
▁potentials	-11435
▁predicting	-11436
▁presyncope	-11437
▁previously	-11438
▁profoundly	-11439
▁programmed	-11440
▁progressed	-11441
▁prolonging	-11442
▁prominence	-11443
▁pronounced	-11444
▁protrusion	-11445
▁puncturing	-11446
▁radiograph	-11447
▁recipients	-11448
▁recognized	-11449
▁recommends	-11450
▁reconnects	-11451
▁recoveries	-11452
▁recuperate	-11453
▁references	-11454
▁regulating	-11455
▁resections	-11456
▁rhinovirus	-11457
▁salivation	-11458
▁sanitation	-11459
▁separating	-11460
▁shortening	-11461
▁sialoliths	-11462
▁sialorrhea	-11463
▁smoothness	-11464
▁spasticity	-11465
▁spirometry	-11466
▁statistics	-11467
▁sterilized	-11468
▁streamline	-11469
▁subglottis	-11470
▁sublingual	-11471
▁submerging	-11472
▁suggesting	-11473
▁suppressed	-11474
▁sustaining	-11475
▁syphilitic	-11476
▁telephones	-11477
▁tendencies	-11478
▁thresholds	-11479
▁toiletries	-11480
▁tolerating	-11481
▁toothaches	-11482
▁unaffected	-11483
▁unbearable	-11484
▁undifferen	-11485
▁unintended	-11486
▁unresolved	-11487
▁unsettling	-11488
▁unsuitable	-11489
▁vitrectomy	-11490
▁vocabulary	-11491
▁weaknesses	-11492
▁workplaces	-11493
atomasurgery	-11494
audiological	-11495
communicable	-11496
embolization	-11497
enophthalmos	-11498
epiglottitis	-11499
establishing	-11500
fibromatosis	-11501
fluidbuildup	-11502
gonococcalph	-11503
laryngoscopy	-11504
ludwigsangin	-11505
noiseinduced	-11506
resolveonown	-11507
selfrecovery	-11508
sexualhealth	-11509
stapedectomy	-11510
stereotactic	-11511
tonguecancer	-11512
tracheostomy	-11513
tympanometry	-11514
ulonephritis	-11515
zosteroticus	-11516
▁accompanies	-11517
▁administers	-11518
▁adolescence	-11519
▁aggravating	-11520
▁aggravation	-11521
▁amyloidosis	-11522
▁anaphylaxis	-11523
▁antiemetics	-11524
▁antihelical	-11525
▁antithyroid	-11526
▁asphyxiants	-11527
▁beautifully	-11528
▁calibrating	-11529
▁calibration	-11530
▁capillaries	-11531
▁chromosomal	-11532
▁cleanliness	-11533
▁coagulation	-11534
▁communities	-11535
▁complements	-11536
▁concentrate	-11537
▁confidently	-11538
▁contributes	-11539
▁cooperative	-11540
▁coordinated	-11541
▁coronavirus	-11542
▁customizing	-11543
▁denervation	-11544
▁discrepancy	-11545
▁dislodgment	-11546
▁distinguish	-11547
▁distraction	-11548
▁disturbance	-11549
▁doxycycline	-11550
▁dystrophies	-11551
▁educational	-11552
▁electrolyte	-11553
▁elimination	-11554
▁emergencies	-11555
▁empowerment	-11556
▁endoscopist	-11557
▁enthusiasts	-11558
▁enucleation	-11559
▁eradicating	-11560
▁exploratory	-11561
▁extractions	-11562
▁familiarize	-11563
▁fluorescein	-11564
▁fluoroscopy	-11565
▁frightening	-11566
▁furthermore	-11567
▁geneticists	-11568
▁glomusjugul	-11569
▁immobilized	-11570
▁immobilizes	-11571
▁instability	-11572
▁interpreted	-11573
▁intolerable	-11574
▁intricacies	-11575
▁introducing	-11576
▁investigate	-11577
▁ipratropium	-11578
▁irregularly	-11579
▁irrigations	-11580
▁laparoscope	-11581
▁laparoscopy	-11582
▁lubricating	-11583
▁manipulated	-11584
▁mentoplasty	-11585
▁metabolites	-11586
▁microtrauma	-11587
▁mountainous	-11588
▁mouthwashes	-11589
▁mucociliary	-11590
▁opportunity	-11591
▁oscillopsia	-11592
▁outfracture	-11593
▁overcrowded	-11594
▁overlapping	-11595
▁painkillers	-11596
▁penetrating	-11597
▁phonophobia	-11598
▁prematurity	-11599
▁prioritizes	-11600
▁prokinetics	-11601
▁provocative	-11602
▁psychiatric	-11603
▁questioning	-11604
▁realignment	-11605
▁recruitment	-11606
▁recurrently	-11607
▁redirecting	-11608
▁regenerates	-11609
▁reoccurring	-11610
▁repetitions	-11611
▁researchers	-11612
▁reverberate	-11613
▁salespeople	-11614
▁sialagogues	-11615
▁sialography	-11616
▁specialties	-11617
▁straightens	-11618
▁suffocating	-11619
▁suffocation	-11620
▁suggestions	-11621
▁transferred	-11622
▁tympanogram	-11623
▁ultrasounds	-11624
▁unfavorable	-11625
acetaminophen	-11626
arteriovenous	-11627
branchialcyst	-11628
earbarotrauma	-11629
earinfections	-11630
mastoidectomy	-11631
opharyngiomas	-11632
peritonsillar	-11633
predominantly	-11634
rarecondition	-11635
reinnervation	-11636
streptococcal	-11637
tonsilloliths	-11638
warthinstumor	-11639
▁accidentally	-11640
▁accumulating	-11641
▁aggressively	-11642
▁apprehension	-11643
▁arthroplasty	-11644
▁articulating	-11645
▁azithromycin	-11646
▁bronchoscope	-11647
▁camouflaging	-11648
▁communicable	-11649
▁communicated	-11650
▁complicating	-11651
▁compromising	-11652
▁confirmatory	-11653
▁connectivity	-11654
▁contaminants	-11655
▁continuously	-11656
▁conversation	-11657
▁cosmetically	-11658
▁definitively	-11659
▁developments	-11660
▁disappearing	-11661
▁discontinued	-11662
▁dislocations	-11663
▁dislodgement	-11664
▁distractions	-11665
▁excruciating	-11666
▁expectorants	-11667
▁experimental	-11668
▁formulations	-11669
▁genioglossus	-11670
▁granulations	-11671
▁highlighting	-11672
▁hydroquinone	-11673
▁hyperarousal	-11674
▁hypertrophic	-11675
▁immunohistoc	-11676
▁inaccessible	-11677
▁incidentally	-11678
▁inconvenient	-11679
▁intravitreal	-11680
▁introduction	-11681
▁irregularity	-11682
▁malignancies	-11683
▁manipulative	-11684
▁menstruation	-11685
▁micrognathia	-11686
▁misdirection	-11687
▁misinterpret	-11688
▁motorcycling	-11689
▁mucormycetes	-11690
▁multifaceted	-11691
▁myocutaneous	-11692
▁neurosurgery	-11693
▁observations	-11694
▁optimization	-11695
▁organization	-11696
▁overactivity	-11697
▁overreactive	-11698
▁painlessness	-11699
▁palatoplasty	-11700
▁pericarditis	-11701
▁phonosurgery	-11702
▁phototherapy	-11703
▁pneumothorax	-11704
▁presbyphonia	-11705
▁presentation	-11706
▁preventative	-11707
▁prioritizing	-11708
▁quantitative	-11709
▁reactivating	-11710
▁rechargeable	-11711
▁recuperation	-11712
▁redistribute	-11713
▁rehabilitate	-11714
▁relationship	-11715
▁representing	-11716
▁reproductive	-11717
▁retrosigmoid	-11718
▁rhinoviruses	-11719
▁similarities	-11720
▁strengthened	-11721
▁sufficiently	-11722
▁supplemental	-11723
▁supraglottic	-11724
▁surprisingly	-11725
▁synchronized	-11726
▁systemically	-11727
▁testosterone	-11728
▁transferring	-11729
▁transjugular	-11730
▁transmastoid	-11731
▁trimethoprim	-11732
▁tuberculosis	-11733
▁tympanometer	-11734
▁underscoring	-11735
▁unsterilized	-11736
▁workstations	-11737
aschersyndrome	-11738
choanalatresia	-11739
eustachiantube	-11740
gushersyndrome	-11741
laryngomalacia	-11742
nystagmography	-11743
perichondritis	-11744
rhinoscleromat	-11745
stapesfixation	-11746
suddendeafness	-11747
▁acetylcholine	-11748
▁anesthetizing	-11749
▁anterolateral	-11750
▁antihistamine	-11751
▁appropriately	-11752
▁automatically	-11753
▁certification	-11754
▁complementary	-11755
▁desensitizing	-11756
▁determination	-11757
▁diaphragmatic	-11758
▁differentials	-11759
▁discrepancies	-11760
▁dissemination	-11761
▁electrolarynx	-11762
▁embryogenesis	-11763
▁entertainment	-11764
▁erythematosus	-11765
▁esophagoscopy	-11766
▁fusobacterium	-11767
▁hypertrophied	-11768
▁inadvertently	-11769
▁independently	-11770
▁inflammations	-11771
▁informational	-11772
▁infratemporal	-11773
▁lymphadenitis	-11774
▁microdebrider	-11775
▁misalignments	-11776
▁mismanagement	-11777
▁misunderstood	-11778
▁myoepithelial	-11779
▁nasoendoscopy	-11780
▁neurosurgical	-11781
▁ophthalmology	-11782
▁perichondrium	-11783
▁phenylephrine	-11784
▁photoreceptor	-11785
▁progressively	-11786
▁pronunciation	-11787
▁proportionate	-11788
▁psychotherapy	-11789
▁pulmonologist	-11790
▁radiculopathy	-11791
▁reflectometry	-11792
▁reinforcement	-11793
▁reinnervation	-11794
▁restructuring	-11795
▁reverberating	-11796
▁subperiosteal	-11797
▁sympathectomy	-11798
▁synchronously	-11799
▁transmissible	-11800
▁unfortunately	-11801
cricopharyngeal	-11802
earinflammation	-11803
lifethreatening	-11804
polysomnography	-11805
pottspuffytumor	-11806
pseudoephedrine	-11807
sulcusglottidis	-11808
vocalcordtrauma	-11809
▁anticonvulsant	-11810
▁antipsychotics	-11811
▁blepharoplasty	-11812
▁blepharoptosis	-11813
▁concentrations	-11814
▁conservatively	-11815
▁disequilibrium	-11816
▁disorientation	-11817
▁electrosurgery	-11818
▁histopathology	-11819
▁hypersecretion	-11820
▁intraoperative	-11821
▁manifestations	-11822
▁microtiacauses	-11823
▁multifactorial	-11824
▁nonprogressive	-11825
▁nystagmography	-11826
▁organizational	-11827
▁ossiculoplasty	-11828
▁paraganglionic	-11829
▁pharmaceutical	-11830
▁pulmonologists	-11831
▁questionnaires	-11832
▁reaccumulation	-11833
▁recommendation	-11834
▁reverberations	-11835
▁telangiectases	-11836
▁tracheomalacia	-11837
▁understandable	-11838
aqueductsyndrome	-11839
auriculocondylar	-11840
flightprevention	-11841
hhtcomplications	-11842
iratoryinfection	-11843
medicalattention	-11844
retractionpocket	-11845
sulfamethoxazole	-11846
treatmentoptions	-11847
▁acclimatization	-11848
▁benzodiazepines	-11849
▁collaboratively	-11850
▁costochondritis	-11851
▁discontinuation	-11852
▁dissatisfaction	-11853
▁hospitalization	-11854
▁inappropriately	-11855
▁inattentiveness	-11856
▁ineffectiveness	-11857
▁interchangeably	-11858
▁neuroectodermal	-11859
▁nonprescription	-11860
▁overdevelopment	-11861
▁polysomnography	-11862
**1	-11863
**2	-11864
-5%	-11865
-6%	-11866
0%,	-11867
0%.	-11868
0-4	-11869
0.0	-11870
0.1	-11871
0.3	-11872
0.5	-11873
0.6	-11874
5-4	-11875
50%	-11876
60.	-11877
80%	-11878
90-	-11879
95%	-11880
cau	-11881
dhb	-11882
dhc	-11883
egr	-11884
lds	-11885
yme	-11886
zym	-11887
▁50	-11888
,500	-11889
-90%	-11890
000,	-11891
5000	-11892
8-10	-11893
90%.	-11894
aclo	-11895
alyz	-11896
bulb	-11897
diaz	-11898
gurt	-11899
-14	-11900
-15	-11901
0-1	-11902
5-1	-11903
6-1	-11904
8-1	-11905
ofd	-11906
dini	-11907
hips	-11908
hots	-11909
ifts	-11910
inct	-11911
lded	-11912
muff	-11913
ofov	-11914
ools	-11915
peti	-11916
ragm	-11917
reme	-11918
rhoe	-11919
roca	-11920
ropi	-11921
sudd	-11922
uzzy	-11923
wash	-11924
zath	-11925
zyme	-11926
▁**2	-11927
▁0.5	-11928
▁1-4	-11929
▁40-	-11930
▁6-1	-11931
▁60-	-11932
▁7-1	-11933
▁80-	-11934
▁csp	-11935
▁gau	-11936
5-90%	-11937
6,000	-11938
abdom	-11939
ablis	-11940
alibr	-11941
allpi	-11942
almic	-11943
alypt	-11944
alyze	-11945
ampoo	-11946
antee	-11947
aroff	-11948
athec	-11949
bbles	-11950
cepti	-11951
cordp	-11952
domin	-11953
enker	-11954
ezers	-11955
fixim	-11956
fluen	-11957
frequ	-11958
giver	-11959
glass	-11960
gnath	-11961
hragm	-11962
htcom	-11963
ibros	-11964
ields	-11965
ieved	-11966
iftly	-11967
inaca	-11968
ioven	-11969
laxis	-11970
lobes	-11971
loyed	-11972
mands	-11973
mming	-11974
ocols	-11975
ofdys	-11976
ofing	-11977
oglyc	-11978
olicy	-11979
omics	-11980
omnog	-11981
otrex	-11982
pancy	-11983
pered	-11984
persp	-11985
polys	-11986
potts	-11987
presc	-11988
rangl	-11989
ratro	-11990
rawal	-11991
restl	-11992
rustr	-11993
shots	-11994
tebra	-11995
thema	-11996
tiaca	-11997
tomeg	-11998
ucaly	-11999
jn	-12000
sg	-12001
adg	-12002
dri	-12003
gid	-12004
pas	-12005
vms	-12006
xis	-12007
anog	-12008
arof	-12009
ghly	-12010
hear	-12011
imet	-12012
jure	-12013
lifi	-12014
ofre	-12015
olis	-12016
owis	-12017
roof	-12018
scop	-12019
unsc	-12020
anied	-12021
ircul	-12022
lexib	-12023
mplex	-12024
offic	-12025
ontan	-12026
suffl	-12027
uctsy	-12028
udoep	-12029
uggle	-12030
uilds	-12031
utane	-12032
vival	-12033
ynoph	-12034
zards	-12035
▁14-2	-12036
▁15-3	-12037
▁24-4	-12038
▁30-6	-12039
▁60-7	-12040
▁80-9	-12041
▁90-9	-12042
▁acvr	-12043
▁batt	-12044
▁ceft	-12045
▁cele	-12046
▁celi	-12047
▁cere	-12048
▁coex	-12049
▁craw	-12050
▁crev	-12051
▁cyan	-12052
▁derm	-12053
▁eros	-12054
▁frid	-12055
▁garl	-12056
▁kleb	-12057
▁leng	-12058
▁leuk	-12059
▁mump	-12060
▁nigh	-12061
▁pesk	-12062
▁popc	-12063
▁publ	-12064
▁puff	-12065
▁rams	-12066
▁rebu	-12067
▁sjog	-12068
▁sjög	-12069
▁sunb	-12070
▁supr	-12071
▁unkn	-12072
0-90%,	-12073
ablish	-12074
abolic	-12075
ademic	-12076
agangl	-12077
akenly	-12078
alovir	-12079
ampoos	-12080
arably	-12081
arette	-12082
arvest	-12083
autery	-12084
avirus	-12085
bbling	-12086
behavi	-12087
bulent	-12088
cology	-12089
digest	-12090
ducive	-12091
ealing	-12092
ecomes	-12093
ecuted	-12094
edside	-12095
enesis	-12096
fixime	-12097
ftcyst	-12098
ftriax	-12099
adu	-12100
bop	-12101
ddi	-12102
eff	-12103
enc	-12104
feg	-12105
gor	-12106
gra	-12107
inq	-12108
rre	-12109
tat	-12110
uor	-12111
yer	-12112
▁ri	-12113
alci	-12114
gnan	-12115
happ	-12116
imic	-12117
iosy	-12118
just	-12119
osoc	-12120
otin	-12121
ttes	-12122
uthg	-12123
▁slo	-12124
actor	-12125
betes	-12126
disci	-12127
gesic	-12128
gnant	-12129
olych	-12130
oment	-12131
timic	-12132
▁40-6	-12133
▁alre	-12134
▁exha	-12135
▁sett	-12136
▁shar	-12137
▁sput	-12138
▁unha	-12139
ardenb	-12140
argets	-12141
axants	-12142
enging	-12143
geably	-12144
givers	-12145
gnancy	-12146
graphy	-12147
guards	-12148
gusher	-12149
hallpi	-12150
helves	-12151
herosc	-12152
hhtcom	-12153
iarize	-12154
ibrant	-12155
ielded	-12156
iffing	-12157
igaret	-12158
illows	-12159
iopath	-12160
itizes	-12161
jority	-12162
leases	-12163
lights	-12164
lossca	-12165
mature	-12166
minish	-12167
monary	-12168
mphoid	-12169
mptoma	-12170
nified	-12171
obally	-12172
ocalis	-12173
ockers	-12174
octurn	-12175
ocytes	-12176
ofrequ	-12177
ograms	-12178
omodul	-12179
omorph	-12180
onomic	-12181
onsist	-12182
ontane	-12183
ontinu	-12184
orient	-12185
orrhoe	-12186
oskele	-12187
ounced	-12188
owered	-12189
produc	-12190
queeze	-12191
quilib	-12192
quinol	-12193
ralize	-12194
rasion	-12195
ravate	-12196
resolv	-12197
roduce	-12198
rognos	-12199
cq	-12200
edl	-12201
hat	-12202
ksh	-12203
lch	-12204
oye	-12205
ubb	-12206
ylo	-12207
ashe	-12208
atom	-12209
cify	-12210
gnat	-12211
iald	-12212
icac	-12213
inna	-12214
issn	-12215
miss	-12216
olat	-12217
rode	-12218
ronc	-12219
roub	-12220
stit	-12221
tire	-12222
ylar	-12223
▁sew	-12224
activ	-12225
agmus	-12226
ategy	-12227
capes	-12228
czema	-12229
domen	-12230
elids	-12231
isser	-12232
lfrec	-12233
teris	-12234
titut	-12235
ubell	-12236
upted	-12237
ylind	-12238
▁caul	-12239
▁orde	-12240
▁vege	-12241
aiting	-12242
amline	-12243
anical	-12244
elitis	-12245
ermati	-12246
essing	-12247
orless	-12248
oxygen	-12249
rolled	-12250
romaty	-12251
ropium	-12252
rouble	-12253
rusted	-12254
ryonic	-12255
sected	-12256
sequen	-12257
siella	-12258
slight	-12259
ssicul	-12260
stands	-12261
steady	-12262
suffic	-12263
sulfam	-12264
tables	-12265
teriov	-12266
terpre	-12267
themat	-12268
thinst	-12269
tified	-12270
tigate	-12271
transl	-12272
ubborn	-12273
ubella	-12274
uggles	-12275
uildup	-12276
ularet	-12277
ulprit	-12278
ulsant	-12279
ultane	-12280
upture	-12281
uronic	-12282
usesof	-12283
ylalan	-12284
yrinth	-12285
ywords	-12286
▁adjuv	-12287
▁aggra	-12288
▁altit	-12289
▁attit	-12290
▁azath	-12291
▁capac	-12292
▁chiro	-12293
▁chlor	-12294
▁colum	-12295
▁cyber	-12296
▁defic	-12297
▁degre	-12298
▁domin	-12299
vc	-12300
aty	-12301
diz	-12302
tab	-12303
tas	-12304
tre	-12305
▁ou	-12306
▁ow	-12307
0.5%	-12308
90%,	-12309
eser	-12310
gion	-12311
ownw	-12312
umid	-12313
unat	-12314
urom	-12315
zema	-12316
zith	-12317
8,000	-12318
ainfl	-12319
ician	-12320
idney	-12321
ludes	-12322
omaly	-12323
orant	-12324
rayed	-12325
ridor	-12326
rofen	-12327
ymmet	-12328
yphil	-12329
▁fulf	-12330
▁graf	-12331
▁grav	-12332
▁ibup	-12333
▁mala	-12334
▁maln	-12335
▁osti	-12336
▁shak	-12337
anding	-12338
angers	-12339
cosisr	-12340
dening	-12341
ediope	-12342
edtime	-12343
iquely	-12344
isters	-12345
odynam	-12346
omalac	-12347
otoxic	-12348
raying	-12349
ronyst	-12350
seudoc	-12351
ubbing	-12352
ulsati	-12353
vement	-12354
▁aspar	-12355
▁dehis	-12356
▁doppl	-12357
▁dosim	-12358
▁equip	-12359
▁exhib	-12360
▁fibro	-12361
▁footw	-12362
▁gonor	-12363
▁grogg	-12364
▁guard	-12365
▁hairp	-12366
▁halit	-12367
▁hardw	-12368
▁heavi	-12369
▁highe	-12370
▁inapp	-12371
▁infil	-12372
▁jaund	-12373
▁jewel	-12374
▁kidne	-12375
▁marri	-12376
▁marsu	-12377
▁melas	-12378
▁missh	-12379
▁myocl	-12380
▁myoep	-12381
▁myxed	-12382
▁occas	-12383
▁paran	-12384
▁plugg	-12385
▁popul	-12386
▁prono	-12387
▁provo	-12388
▁purpl	-12389
▁purul	-12390
▁readi	-12391
▁relev	-12392
▁renew	-12393
▁restl	-12394
▁rheum	-12395
▁safet	-12396
▁shoot	-12397
▁sinon	-12398
▁sneez	-12399
vd	-12400
,00	-12401
00,	-12402
awb	-12403
col	-12404
elr	-12405
fla	-12406
hia	-12407
itm	-12408
ook	-12409
orp	-12410
pab	-12411
ssi	-12412
uan	-12413
arit	-12414
arri	-12415
astf	-12416
ctom	-12417
efec	-12418
eful	-12419
heos	-12420
inop	-12421
kopl	-12422
nore	-12423
oidf	-12424
well	-12425
ysic	-12426
▁100	-12427
▁tas	-12428
▁wei	-12429
apses	-12430
creen	-12431
imple	-12432
joyed	-12433
juven	-12434
langu	-12435
oplas	-12436
ormon	-12437
quely	-12438
rintz	-12439
roder	-12440
therm	-12441
urses	-12442
▁jour	-12443
▁pulm	-12444
▁upri	-12445
athyro	-12446
berate	-12447
cisely	-12448
imized	-12449
orenal	-12450
▁carti	-12451
▁chanc	-12452
▁elder	-12453
▁goodb	-12454
▁hemor	-12455
▁juven	-12456
▁strok	-12457
▁stuff	-12458
▁suffe	-12459
▁suppl	-12460
▁syncy	-12461
▁syste	-12462
▁teasp	-12463
▁tickl	-12464
▁tobac	-12465
▁treac	-12466
▁tremb	-12467
▁trick	-12468
▁trige	-12469
▁tyros	-12470
▁unnec	-12471
▁unpro	-12472
▁unsuc	-12473
▁utens	-12474
▁verte	-12475
▁volum	-12476
▁warth	-12477
▁whipl	-12478
abapent	-12479
agmatic	-12480
agments	-12481
alizing	-12482
alsalva	-12483
alyzing	-12484
amework	-12485
anglion	-12486
aporize	-12487
ardened	-12488
arditis	-12489
arettes	-12490
arrange	-12491
astbone	-12492
aternal	-12493
atholog	-12494
atisfac	-12495
attenti	-12496
aturely	-12497
avigate	-12498
barotra	-12499
eh	-12500
aim	-12501
bbl	-12502
fat	-12503
hom	-12504
mse	-12505
tut	-12506
uze	-12507
wis	-12508
xia	-12509
cium	-12510
diac	-12511
drom	-12512
enit	-12513
ishe	-12514
ixed	-12515
lain	-12516
nyst	-12517
ofac	-12518
roup	-12519
ultr	-12520
▁amy	-12521
▁gam	-12522
amics	-12523
centr	-12524
cepts	-12525
facet	-12526
inuso	-12527
ircum	-12528
leton	-12529
lossc	-12530
onest	-12531
pleas	-12532
pleom	-12533
rypts	-12534
tured	-12535
untar	-12536
xygen	-12537
▁amox	-12538
▁bott	-12539
▁crat	-12540
▁fire	-12541
▁howe	-12542
▁preg	-12543
▁tong	-12544
▁youn	-12545
atolog	-12546
fluidb	-12547
innerv	-12548
levate	-12549
lossus	-12550
ostril	-12551
queduc	-12552
wardly	-12553
▁coffe	-12554
▁eardr	-12555
▁labyr	-12556
▁outlo	-12557
▁recei	-12558
bilirub	-12559
bonated	-12560
bricant	-12561
bricate	-12562
briders	-12563
bulence	-12564
bulized	-12565
cellent	-12566
cetamin	-12567
cinated	-12568
cordpar	-12569
courage	-12570
dermati	-12571
dispose	-12572
ducedhe	-12573
eafness	-12574
earinfl	-12575
echanis	-12576
emporal	-12577
empting	-12578
erature	-12579
erebral	-12580
ergonom	-12581
erostom	-12582
ertness	-12583
escence	-12584
escentm	-12585
estheti	-12586
ethoxaz	-12587
faciald	-12588
fficien	-12589
fluenza	-12590
fusions	-12591
gerated	-12592
glossia	-12593
glottis	-12594
grating	-12595
gration	-12596
gularly	-12597
hprintz	-12598
hylaxis	-12599
avy	-12600
car	-12601
gec	-12602
mif	-12603
nih	-12604
ppa	-12605
rer	-12606
ypt	-12607
alag	-12608
alph	-12609
gage	-12610
gare	-12611
iver	-12612
open	-12613
oyed	-12614
uver	-12615
▁lel	-12616
▁mad	-12617
▁nav	-12618
▁smi	-12619
▁tal	-12620
▁zos	-12621
atomy	-12622
atoph	-12623
avors	-12624
gnore	-12625
ibits	-12626
inder	-12627
indow	-12628
llary	-12629
lymer	-12630
nique	-12631
overs	-12632
pinal	-12633
riate	-12634
rupts	-12635
ticip	-12636
▁anem	-12637
▁eyeg	-12638
▁limb	-12639
▁trem	-12640
mucous	-12641
oyable	-12642
radual	-12643
rising	-12644
romise	-12645
ucated	-12646
▁blind	-12647
▁camer	-12648
▁deliv	-12649
▁hered	-12650
▁manif	-12651
▁partn	-12652
▁synch	-12653
▁uncom	-12654
▁uncon	-12655
astinal	-12656
estinal	-12657
ialcyst	-12658
icalatt	-12659
icillin	-12660
idiasis	-12661
idorman	-12662
iercing	-12663
ilience	-12664
illings	-12665
inaural	-12666
inergic	-12667
ingredi	-12668
inguish	-12669
inition	-12670
inophil	-12671
insuffl	-12672
iogloss	-12673
iolence	-12674
iologic	-12675
ipients	-12676
ipulate	-12677
isition	-12678
isseria	-12679
itoring	-12680
itrogen	-12681
jection	-12682
joyable	-12683
joyment	-12684
keleton	-12685
leaning	-12686
leasing	-12687
lebitis	-12688
levated	-12689
ludwigs	-12690
mission	-12691
mittent	-12692
mphoter	-12693
mucormy	-12694
nystagm	-12695
obacter	-12696
obility	-12697
odulate	-12698
odynoph	-12699
hi	-12700
nl	-12701
hon	-12702
ynd	-12703
arml	-12704
diov	-12705
econ	-12706
enis	-12707
gree	-12708
ierc	-12709
ires	-12710
metr	-12711
resc	-12712
ruit	-12713
semb	-12714
tera	-12715
uced	-12716
ycin	-12717
▁30-	-12718
▁aco	-12719
▁agl	-12720
▁art	-12721
▁hom	-12722
▁iss	-12723
▁veh	-12724
achin	-12725
akers	-12726
asier	-12727
atres	-12728
bated	-12729
dress	-12730
educt	-12731
eryon	-12732
ethox	-12733
feres	-12734
iccup	-12735
inosa	-12736
isode	-12737
ogeus	-12738
oices	-12739
romaz	-12740
ruits	-12741
▁agon	-12742
▁airb	-12743
▁cate	-12744
▁dehy	-12745
▁sicc	-12746
actory	-12747
arring	-12748
bances	-12749
cosisp	-12750
haling	-12751
having	-12752
ierres	-12753
inched	-12754
isodic	-12755
itched	-12756
uretic	-12757
▁ageus	-12758
▁basel	-12759
▁labor	-12760
alignan	-12761
anguine	-12762
atching	-12763
compass	-12764
dential	-12765
ergency	-12766
haviors	-12767
iminate	-12768
ircular	-12769
jecting	-12770
ogether	-12771
oliosis	-12772
ologics	-12773
ominant	-12774
omiting	-12775
ontinue	-12776
oplakia	-12777
ordomas	-12778
ormycet	-12779
ositive	-12780
ospasms	-12781
ostasis	-12782
ostoses	-12783
otorece	-12784
ouching	-12785
ouncing	-12786
ousands	-12787
owledge	-12788
oxicill	-12789
oxicity	-12790
passing	-12791
pecting	-12792
pension	-12793
perwork	-12794
pirants	-12795
plastic	-12796
plinary	-12797
polymer	-12798
praglot	-12799
amm	-12800
arc	-12801
byc	-12802
did	-12803
ysm	-12804
▁bp	-12805
▁ea	-12806
▁nu	-12807
artb	-12808
ephe	-12809
fier	-12810
ibro	-12811
igib	-12812
istl	-12813
luis	-12814
lyti	-12815
ondh	-12816
onon	-12817
otpl	-12818
ourn	-12819
rien	-12820
then	-12821
tich	-12822
wart	-12823
arant	-12824
artbe	-12825
bones	-12826
botic	-12827
frain	-12828
gents	-12829
iofib	-12830
ioneu	-12831
lasia	-12832
letes	-12833
llosa	-12834
mited	-12835
notic	-12836
oanal	-12837
occus	-12838
ocere	-12839
peric	-12840
rofib	-12841
tched	-12842
uised	-12843
verac	-12844
▁newb	-12845
▁shoc	-12846
atches	-12847
dients	-12848
etting	-12849
flates	-12850
ghting	-12851
histoc	-12852
isodes	-12853
lottid	-12854
onents	-12855
orbing	-12856
rients	-12857
tilize	-12858
▁adequ	-12859
▁appar	-12860
▁bluis	-12861
▁embar	-12862
▁struc	-12863
▁susce	-12864
astasis	-12865
ception	-12866
mitting	-12867
orption	-12868
otactic	-12869
ptococc	-12870
queduct	-12871
quipped	-12872
rangled	-12873
rarecon	-12874
repancy	-12875
respons	-12876
restler	-12877
rhagica	-12878
rinding	-12879
rinthec	-12880
riskfac	-12881
ritical	-12882
rogress	-12883
rommets	-12884
romycin	-12885
ronizes	-12886
rownish	-12887
ruments	-12888
ruption	-12889
ruritus	-12890
sations	-12891
selfrec	-12892
station	-12893
surgeon	-12894
tagious	-12895
terpret	-12896
thletes	-12897
ticemia	-12898
tifying	-12899
iq	-12900
aby	-12901
cag	-12902
hcl	-12903
iny	-12904
nen	-12905
pen	-12906
vac	-12907
iopr	-12908
iops	-12909
kens	-12910
llus	-12911
mong	-12912
occl	-12913
oise	-12914
oniz	-12915
pses	-12916
rela	-12917
rief	-12918
ssur	-12919
tals	-12920
▁200	-12921
▁chl	-12922
▁lay	-12923
▁zin	-12924
anosm	-12925
arity	-12926
auses	-12927
cines	-12928
habil	-12929
ieres	-12930
iopat	-12931
irths	-12932
ondri	-12933
onven	-12934
undue	-12935
unity	-12936
▁decl	-12937
▁desi	-12938
▁desp	-12939
▁phle	-12940
▁solu	-12941
▁succ	-12942
▁worr	-12943
abiliz	-12944
antosm	-12945
caping	-12946
evelop	-12947
ierest	-12948
ildren	-12949
laring	-12950
lococc	-12951
mpanoc	-12952
oreign	-12953
otothe	-12954
ryothe	-12955
unothe	-12956
uricle	-12957
zenges	-12958
▁idiop	-12959
▁menie	-12960
▁menst	-12961
▁reacc	-12962
abilize	-12963
achines	-12964
atympan	-12965
entists	-12966
hydrate	-12967
idently	-12968
igently	-12969
othache	-12970
othered	-12971
stympan	-12972
tionist	-12973
tiviral	-12974
tomegal	-12975
tonuria	-12976
uarante	-12977
uarding	-12978
ubation	-12979
uctions	-12980
udoephe	-12981
uggling	-12982
uilding	-12983
uliflow	-12984
umbling	-12985
unshots	-12986
uperate	-12987
uppress	-12988
uptured	-12989
urbance	-12990
urinary	-12991
ushersy	-12992
veloped	-12993
vorable	-12994
whelmed	-12995
ymmetry	-12996
ynamics	-12997
ystonia	-12998
▁60-90%	-12999
ait	-13000
anl	-13001
aph	-13002
cro	-13003
don	-13004
iev	-13005
sit	-13006
tbe	-13007
wim	-13008
angl	-13009
ghts	-13010
ibri	-13011
inan	-13012
irus	-13013
lang	-13014
lure	-13015
mber	-13016
opsy	-13017
uber	-13018
ully	-13019
vely	-13020
▁fad	-13021
▁ine	-13022
accin	-13023
amber	-13024
andib	-13025
anger	-13026
angli	-13027
asers	-13028
atern	-13029
earsy	-13030
ficul	-13031
ghtly	-13032
great	-13033
inses	-13034
inson	-13035
isman	-13036
minal	-13037
minog	-13038
ompet	-13039
oxers	-13040
pared	-13041
raven	-13042
semin	-13043
troph	-13044
urgsy	-13045
▁bari	-13046
▁indo	-13047
▁lang	-13048
▁manu	-13049
▁nonc	-13050
▁spea	-13051
arrows	-13052
cified	-13053
comple	-13054
ensate	-13055
hedule	-13056
hprint	-13057
itiate	-13058
lottis	-13059
mandib	-13060
minent	-13061
minist	-13062
nowing	-13063
passes	-13064
thmoid	-13065
venile	-13066
▁barot	-13067
▁barri	-13068
▁colla	-13069
▁handw	-13070
▁muffl	-13071
▁nonsu	-13072
▁reins	-13073
anitary	-13074
entesis	-13075
ostatic	-13076
ricting	-13077
symptom	-13078
syndrom	-13079
tension	-13080
▁acclim	-13081
▁airbor	-13082
▁alongs	-13083
▁alterc	-13084
▁aminog	-13085
▁analys	-13086
▁analyz	-13087
▁anatom	-13088
▁androg	-13089
▁appeti	-13090
▁asphyx	-13091
▁atroph	-13092
▁audiog	-13093
▁blueto	-13094
▁bother	-13095
▁breakd	-13096
▁celebr	-13097
▁circul	-13098
▁cocain	-13099
%.	-13100
ebr	-13101
fts	-13102
ifl	-13103
mas	-13104
mpo	-13105
puf	-13106
aceu	-13107
arrh	-13108
aves	-13109
bloc	-13110
brid	-13111
brux	-13112
cifi	-13113
empt	-13114
heny	-13115
hiev	-13116
lary	-13117
lors	-13118
malc	-13119
mens	-13120
posm	-13121
rebr	-13122
robl	-13123
rors	-13124
xter	-13125
▁eld	-13126
▁muf	-13127
▁ove	-13128
▁pow	-13129
▁ske	-13130
assur	-13131
brant	-13132
broma	-13133
droqu	-13134
ectas	-13135
etion	-13136
manen	-13137
mmetr	-13138
olors	-13139
olves	-13140
orman	-13141
ossod	-13142
place	-13143
proma	-13144
raves	-13145
reata	-13146
timul	-13147
torrh	-13148
uling	-13149
unfor	-13150
viors	-13151
▁angl	-13152
▁elas	-13153
▁elim	-13154
▁veri	-13155
aceous	-13156
asping	-13157
bonate	-13158
ingost	-13159
oining	-13160
omprom	-13161
perior	-13162
rusion	-13163
tionna	-13164
uteriz	-13165
▁adjus	-13166
▁angin	-13167
▁backg	-13168
▁backw	-13169
▁carri	-13170
▁devic	-13171
▁femal	-13172
▁pleom	-13173
▁thinn	-13174
attened	-13175
brating	-13176
bration	-13177
ectasia	-13178
lerothe	-13179
ollects	-13180
rasound	-13181
rebrosp	-13182
uterize	-13183
ystroph	-13184
▁achiev	-13185
▁colore	-13186
▁compas	-13187
▁comput	-13188
▁contam	-13189
▁cylind	-13190
▁descri	-13191
▁design	-13192
▁diaphr	-13193
▁disapp	-13194
▁discre	-13195
▁dissol	-13196
▁earbud	-13197
▁educat	-13198
▁effici	-13199
mo	-13200
ano	-13201
ffl	-13202
ncy	-13203
oag	-13204
toc	-13205
tox	-13206
win	-13207
▁va	-13208
arec	-13209
cyan	-13210
cyti	-13211
egen	-13212
essn	-13213
feri	-13214
ickl	-13215
orcy	-13216
posi	-13217
rapp	-13218
urgs	-13219
ygen	-13220
▁thy	-13221
▁upp	-13222
bates	-13223
eople	-13224
forat	-13225
forms	-13226
idate	-13227
inosc	-13228
isein	-13229
mones	-13230
mphad	-13231
raped	-13232
ratch	-13233
roced	-13234
sates	-13235
upies	-13236
urces	-13237
ustri	-13238
▁carb	-13239
▁clos	-13240
▁emer	-13241
▁keyw	-13242
abetic	-13243
alates	-13244
aralys	-13245
aryngi	-13246
atigue	-13247
ibrate	-13248
itreal	-13249
ixture	-13250
moting	-13251
porate	-13252
rading	-13253
terial	-13254
vasive	-13255
▁chick	-13256
▁expan	-13257
▁grati	-13258
▁maxim	-13259
▁misdi	-13260
▁parox	-13261
atchful	-13262
ecution	-13263
ensates	-13264
estones	-13265
hensive	-13266
icative	-13267
idental	-13268
itiated	-13269
olution	-13270
tilized	-13271
▁daytim	-13272
▁drople	-13273
▁electr	-13274
▁enlarg	-13275
▁everyd	-13276
▁exacer	-13277
▁exchan	-13278
▁excite	-13279
▁explos	-13280
▁expuls	-13281
▁famili	-13282
▁fibros	-13283
▁firear	-13284
▁fistul	-13285
▁fluore	-13286
▁hairst	-13287
▁halluc	-13288
▁harmon	-13289
▁hydroc	-13290
▁hypoph	-13291
▁immuno	-13292
▁incorp	-13293
▁inflix	-13294
▁intrav	-13295
▁lympha	-13296
▁lympho	-13297
▁machin	-13298
▁magnes	-13299
pg	-13300
rk	-13301
acc	-13302
eno	-13303
isu	-13304
log	-13305
nts	-13306
teb	-13307
tsy	-13308
▁ox	-13309
adts	-13310
ayna	-13311
dult	-13312
heli	-13313
leic	-13314
liom	-13315
lipp	-13316
lips	-13317
mpli	-13318
obia	-13319
oimm	-13320
sfac	-13321
terc	-13322
thop	-13323
tite	-13324
unts	-13325
upts	-13326
yrin	-13327
zard	-13328
▁cos	-13329
▁pts	-13330
▁sen	-13331
▁tex	-13332
▁wip	-13333
antos	-13334
arder	-13335
hinov	-13336
iewed	-13337
letal	-13338
oidec	-13339
onade	-13340
tings	-13341
urger	-13342
uvers	-13343
▁capp	-13344
▁epis	-13345
▁eple	-13346
▁patc	-13347
▁stuf	-13348
▁subg	-13349
▁subt	-13350
▁unli	-13351
arding	-13352
epress	-13353
iewing	-13354
ifying	-13355
itaryd	-13356
maliti	-13357
matoma	-13358
oughts	-13359
revers	-13360
ricoth	-13361
versal	-13362
▁antid	-13363
▁coron	-13364
▁pathw	-13365
▁patul	-13366
▁retro	-13367
▁subst	-13368
edotomy	-13369
effects	-13370
fically	-13371
heotomy	-13372
ocondyl	-13373
rolling	-13374
timally	-13375
torrhag	-13376
▁antith	-13377
▁beneat	-13378
▁likeli	-13379
▁menopa	-13380
▁metall	-13381
▁microg	-13382
▁misman	-13383
▁mistak	-13384
▁moment	-13385
▁mouthg	-13386
▁mucorm	-13387
▁myogen	-13388
▁necros	-13389
▁neurom	-13390
▁neurop	-13391
▁newbor	-13392
▁offend	-13393
▁orient	-13394
▁orthop	-13395
▁osteom	-13396
▁overla	-13397
▁parame	-13398
▁parosm	-13399
60%	-13400
70%	-13401
lid	-13402
swe	-13403
utp	-13404
utw	-13405
vat	-13406
▁et	-13407
arty	-13408
atty	-13409
cler	-13410
diox	-13411
hedu	-13412
ilus	-13413
lace	-13414
oard	-13415
ossi	-13416
otes	-13417
ovas	-13418
rade	-13419
swer	-13420
▁bru	-13421
▁dyn	-13422
▁lun	-13423
▁sou	-13424
found	-13425
gaged	-13426
hales	-13427
halit	-13428
hythm	-13429
iflow	-13430
ightp	-13431
ished	-13432
lerom	-13433
leros	-13434
lliti	-13435
mated	-13436
owled	-13437
quipp	-13438
ronos	-13439
sychi	-13440
tries	-13441
xture	-13442
ygoma	-13443
▁brid	-13444
▁brux	-13445
▁humm	-13446
▁lary	-13447
▁outl	-13448
▁verb	-13449
▁vert	-13450
arries	-13451
choing	-13452
eniere	-13453
esteat	-13454
halers	-13455
ipient	-13456
oleste	-13457
tainty	-13458
xually	-13459
ycosis	-13460
yroido	-13461
▁answe	-13462
▁anxie	-13463
▁asphy	-13464
▁cathe	-13465
▁drool	-13466
▁forel	-13467
▁sudom	-13468
▁tailb	-13469
andaged	-13470
lerated	-13471
lerosis	-13472
ogeusia	-13473
opharyn	-13474
ravated	-13475
rection	-13476
ustries	-13477
yroidis	-13478
▁approx	-13479
▁choles	-13480
▁extrac	-13481
▁forehe	-13482
▁paroti	-13483
▁phenyl	-13484
▁pneuma	-13485
▁prefer	-13486
▁premol	-13487
▁prenat	-13488
▁presyn	-13489
▁proced	-13490
▁proxim	-13491
▁quanti	-13492
▁realis	-13493
▁reposi	-13494
▁resemb	-13495
▁reserv	-13496
▁resour	-13497
▁resump	-13498
▁rhythm	-13499
mi	-13500
agi	-13501
nis	-13502
nut	-13503
oge	-13504
raf	-13505
yti	-13506
arsy	-13507
atol	-13508
chio	-13509
cles	-13510
ears	-13511
feed	-13512
kept	-13513
larg	-13514
lesa	-13515
mpha	-13516
oals	-13517
osag	-13518
quip	-13519
rool	-13520
uggl	-13521
uman	-13522
xins	-13523
▁coe	-13524
▁lod	-13525
aples	-13526
dness	-13527
ducer	-13528
eally	-13529
earin	-13530
mboph	-13531
nored	-13532
older	-13533
onyst	-13534
osisp	-13535
tison	-13536
ystro	-13537
▁blep	-13538
▁crep	-13539
▁marg	-13540
▁nodu	-13541
▁peop	-13542
▁shie	-13543
▁surp	-13544
abetes	-13545
argles	-13546
brider	-13547
chothe	-13548
erally	-13549
gaging	-13550
ilymph	-13551
inuous	-13552
mphoma	-13553
orning	-13554
tially	-13555
uritus	-13556
ursing	-13557
▁abdom	-13558
▁cryst	-13559
▁nodul	-13560
▁pleas	-13561
company	-13562
cycline	-13563
earance	-13564
innitus	-13565
ionally	-13566
itially	-13567
owering	-13568
tically	-13569
uishing	-13570
▁apples	-13571
▁detach	-13572
▁distin	-13573
▁distur	-13574
▁salesp	-13575
▁scratc	-13576
▁septor	-13577
▁sialad	-13578
▁staphy	-13579
▁steril	-13580
▁strenu	-13581
▁subsid	-13582
▁suitab	-13583
▁superv	-13584
▁surger	-13585
▁surviv	-13586
▁symmet	-13587
▁syphil	-13588
▁takeof	-13589
▁tampon	-13590
▁teenag	-13591
▁transi	-13592
▁transj	-13593
▁tuberc	-13594
▁unchec	-13595
▁unexpl	-13596
▁unsati	-13597
▁unsuit	-13598
▁vertic	-13599
11	-13600
lr	-13601
dhd	-13602
oxa	-13603
rux	-13604
spl	-13605
vea	-13606
xpl	-13607
▁cp	-13608
adge	-13609
aral	-13610
aste	-13611
augh	-13612
coch	-13613
denb	-13614
ispl	-13615
itux	-13616
lied	-13617
onds	-13618
otox	-13619
pler	-13620
plis	-13621
plop	-13622
ride	-13623
ropl	-13624
sied	-13625
stab	-13626
usce	-13627
uxim	-13628
uxis	-13629
vula	-13630
yrop	-13631
▁tar	-13632
▁tec	-13633
anula	-13634
denly	-13635
iderm	-13636
ought	-13637
phied	-13638
plain	-13639
uence	-13640
urden	-13641
▁coch	-13642
▁expe	-13643
▁flag	-13644
▁pinp	-13645
abling	-13646
abored	-13647
alence	-13648
anaged	-13649
apidly	-13650
ectrol	-13651
ffness	-13652
istula	-13653
licate	-13654
ochond	-13655
ocuses	-13656
ostoch	-13657
otodyn	-13658
ravity	-13659
stling	-13660
utting	-13661
▁airpl	-13662
▁choic	-13663
▁depos	-13664
▁earpl	-13665
▁semic	-13666
▁spond	-13667
▁strob	-13668
▁tuber	-13669
▁vigor	-13670
adicate	-13671
andling	-13672
endence	-13673
inating	-13674
istence	-13675
istling	-13676
ochleog	-13677
ocochle	-13678
ptional	-13679
rolaryn	-13680
uditory	-13681
ularbul	-13682
unicate	-13683
ustachi	-13684
▁inflat	-13685
▁neurol	-13686
▁sebace	-13687
▁vulner	-13688
▁widesp	-13689
▁worksh	-13690
,000,000	-13691
activity	-13692
adedness	-13693
adequate	-13694
agnosing	-13695
alovirus	-13696
aluables	-13697
aluronic	-13698
ammatory	-13699
alc	-13700
iat	-13701
pus	-13702
sel	-13703
tsp	-13704
▁hp	-13705
bits	-13706
dius	-13707
eant	-13708
fits	-13709
fuse	-13710
heop	-13711
hyro	-13712
inge	-13713
iods	-13714
itro	-13715
lian	-13716
nthe	-13717
ondy	-13718
oord	-13719
opti	-13720
otat	-13721
ryot	-13722
rypt	-13723
ryst	-13724
tell	-13725
tens	-13726
them	-13727
unst	-13728
urag	-13729
ysts	-13730
ytes	-13731
alsal	-13732
artle	-13733
bling	-13734
bound	-13735
chodi	-13736
choes	-13737
enase	-13738
espec	-13739
ghthe	-13740
hyoid	-13741
iodon	-13742
ivary	-13743
ocond	-13744
onded	-13745
onses	-13746
repan	-13747
rying	-13748
thiti	-13749
twork	-13750
ultid	-13751
▁endo	-13752
▁prox	-13753
▁serv	-13754
achian	-13755
erythe	-13756
ichond	-13757
lizing	-13758
mpanom	-13759
nizing	-13760
odging	-13761
onates	-13762
onding	-13763
sychos	-13764
▁budge	-13765
▁chond	-13766
▁strid	-13767
estibul	-13768
ificant	-13769
itively	-13770
nsizing	-13771
ranging	-13772
thening	-13773
tilling	-13774
welling	-13775
zziness	-13776
▁explor	-13777
▁extens	-13778
▁relaps	-13779
alignant	-13780
anglioma	-13781
aningful	-13782
anometry	-13783
apediope	-13784
aralysis	-13785
ardening	-13786
arkening	-13787
arotitis	-13788
arrowing	-13789
arthinst	-13790
assified	-13791
astroent	-13792
astroint	-13793
asurgery	-13794
atherapy	-13795
athology	-13796
atisfied	-13797
avorable	-13798
axillary	-13799
20	-13800
lg	-13801
cal	-13802
cit	-13803
eal	-13804
fam	-13805
fle	-13806
iof	-13807
nea	-13808
pne	-13809
rug	-13810
top	-13811
zin	-13812
arns	-13813
avir	-13814
bris	-13815
bros	-13816
eine	-13817
enio	-13818
erug	-13819
iala	-13820
lexi	-13821
orne	-13822
pose	-13823
ramm	-13824
ugul	-13825
ungi	-13826
ungs	-13827
unse	-13828
upri	-13829
urne	-13830
yber	-13831
▁sys	-13832
alifi	-13833
alith	-13834
cised	-13835
cises	-13836
essed	-13837
essor	-13838
hieve	-13839
idifi	-13840
lchol	-13841
lexes	-13842
minis	-13843
olded	-13844
oside	-13845
using	-13846
▁immo	-13847
▁pals	-13848
▁plug	-13849
▁redd	-13850
▁rene	-13851
▁spen	-13852
cribed	-13853
ergies	-13854
etical	-13855
histam	-13856
lexive	-13857
manent	-13858
omavir	-13859
ossody	-13860
rument	-13861
tology	-13862
ugular	-13863
uously	-13864
▁andro	-13865
▁deser	-13866
▁dripp	-13867
▁measl	-13868
▁possi	-13869
▁profo	-13870
▁templ	-13871
alanced	-13872
arching	-13873
ategies	-13874
enching	-13875
esthesi	-13876
lexible	-13877
lossopt	-13878
morrhag	-13879
torants	-13880
urround	-13881
▁associ	-13882
▁hygien	-13883
▁synthe	-13884
azepines	-13885
bearable	-13886
bearably	-13887
berating	-13888
berknife	-13889
brations	-13890
bricated	-13891
causesof	-13892
cellence	-13893
chronous	-13894
cination	-13895
cosisris	-13896
couraged	-13897
courages	-13898
cription	-13899
ave	-13900
hor	-13901
phi	-13902
tro	-13903
wee	-13904
▁io	-13905
airs	-13906
airy	-13907
aker	-13908
ason	-13909
crow	-13910
esse	-13911
ibit	-13912
imat	-13913
kfac	-13914
leph	-13915
opul	-13916
ysph	-13917
▁cog	-13918
▁esc	-13919
▁esp	-13920
▁ion	-13921
▁plu	-13922
▁uti	-13923
antit	-13924
bular	-13925
cline	-13926
colog	-13927
drums	-13928
econd	-13929
holog	-13930
immer	-13931
iolog	-13932
netic	-13933
phies	-13934
unche	-13935
urrow	-13936
▁aure	-13937
▁coal	-13938
▁corn	-13939
▁croh	-13940
▁crow	-13941
▁drow	-13942
▁jawb	-13943
▁nerv	-13944
▁offs	-13945
▁tinn	-13946
airing	-13947
akness	-13948
bility	-13949
cholog	-13950
erolog	-13951
ficant	-13952
finess	-13953
igence	-13954
ollows	-13955
piness	-13956
reated	-13957
ullest	-13958
ulling	-13959
ziness	-13960
▁earph	-13961
▁equil	-13962
▁modif	-13963
▁parat	-13964
adiness	-13965
essions	-13966
eticist	-13967
helioma	-13968
otional	-13969
pharyng	-13970
ppiness	-13971
practic	-13972
titutes	-13973
ullness	-13974
▁cortic	-13975
▁extrem	-13976
▁radiog	-13977
▁radiol	-13978
culation	-13979
debrider	-13980
digested	-13981
dilators	-13982
dioxygen	-13983
echanism	-13984
ecretion	-13985
edatives	-13986
edgeable	-13987
edicated	-13988
egrating	-13989
embering	-13990
endoscop	-13991
enerates	-13992
enlarged	-13993
ensitive	-13994
ensitize	-13995
entistry	-13996
eratures	-13997
essional	-13998
establis	-13999
bn	-14000
ea	-14001
kb	-14002
tu	-14003
eak	-14004
ftc	-14005
iva	-14006
kpl	-14007
lak	-14008
vin	-14009
wak	-14010
yph	-14011
▁1-	-14012
▁85	-14013
akin	-14014
aser	-14015
ecti	-14016
entr	-14017
ftly	-14018
ftov	-14019
ideo	-14020
iran	-14021
ives	-14022
orph	-14023
oryz	-14024
phon	-14025
plan	-14026
plug	-14027
raft	-14028
reak	-14029
rono	-14030
uine	-14031
▁arc	-14032
▁arn	-14033
▁lim	-14034
▁rav	-14035
▁wak	-14036
arted	-14037
edtim	-14038
esign	-14039
estim	-14040
euver	-14041
igher	-14042
itter	-14043
nomas	-14044
odide	-14045
opted	-14046
thead	-14047
uched	-14048
udiog	-14049
ultan	-14050
useso	-14051
▁aris	-14052
▁dysf	-14053
▁jawl	-14054
▁nota	-14055
▁runn	-14056
ducted	-14057
eviate	-14058
ickens	-14059
ideost	-14060
maging	-14061
ominal	-14062
owntim	-14063
siness	-14064
stemic	-14065
tichol	-14066
timate	-14067
udiome	-14068
▁ranul	-14069
▁studi	-14070
akening	-14071
alatine	-14072
argeted	-14073
aviness	-14074
ighttim	-14075
ressure	-14076
vements	-14077
▁belong	-14078
▁confin	-14079
▁hyposm	-14080
▁micros	-14081
▁precan	-14082
▁requir	-14083
▁ultras	-14084
agements	-14085
estigate	-14086
etically	-14087
etrating	-14088
etration	-14089
euroblas	-14090
eustachi	-14091
facialde	-14092
fectious	-14093
feedback	-14094
ferences	-14095
fibromat	-14096
fixation	-14097
ftonsils	-14098
gatively	-14099
oj	-14100
aln	-14101
coh	-14102
inu	-14103
kni	-14104
pip	-14105
rni	-14106
sop	-14107
tip	-14108
uro	-14109
agni	-14110
aniz	-14111
coal	-14112
cups	-14113
hoid	-14114
icke	-14115
kups	-14116
late	-14117
llec	-14118
nifi	-14119
nual	-14120
ogni	-14121
ogog	-14122
stom	-14123
utur	-14124
▁dim	-14125
▁inq	-14126
▁ker	-14127
▁myo	-14128
▁tco	-14129
▁yie	-14130
agner	-14131
asily	-14132
axing	-14133
idely	-14134
idiop	-14135
istax	-14136
itrec	-14137
onsib	-14138
orary	-14139
order	-14140
oride	-14141
ortic	-14142
recov	-14143
roups	-14144
thosc	-14145
ulcus	-14146
undly	-14147
▁alco	-14148
▁betw	-14149
▁intu	-14150
▁myse	-14151
▁sugg	-14152
aments	-14153
anning	-14154
armful	-14155
attern	-14156
bining	-14157
edding	-14158
ensory	-14159
[...]
